#version: 0.2
Ġ t
h e
Ġ a
i n
Ġt he
e r
o n
Ġ ,
r e
Ġ s
e d
Ġ w
Ġ o
n d
a t
Ġ .
o r
e n
Ġ c
i t
Ġ f
i s
e s
a r
Ġ b
Ġo f
a n
Ġ in
a l
in g
Ġ p
a s
Ġa nd
Ġt o
i c
r o
Ġ m
Ġ d
Ġ h
i on
l e
Ġ Ċ
o u
Ġ T
Ġ re
Ġ =
Ġ S
i l
Ġ A
en t
Ġ "
Ġ 1
Ġt h
s t
e l
Ġ C
Ġ l
Ġ @
o m
Ġ e
a m
Ġ n
a d
a c
Ġw as
Ġ M
Ġ B
e c
Ġ on
ĠT he
l y
u r
Ġ '
e t
i d
o l
Ġ g
i m
Ġ I
- @
Ġ@ -@
Ġf or
i r
i g
i v
o t
t er
Ġ H
u t
Ġa s
u s
o w
it h
a y
Ġ 2
Ġ P
Ġs t
Ġ he
v er
at ion
Ġw ith
Ġb e
Ġ R
Ġth at
Ġ D
c e
u n
e m
Ġ W
Ġw h
Ġ F
c h
Ġb y
t h
Ġa l
Ġ )
Ġ (
Ġ L
u l
Ġ G
Ġ is
Ġc on
er s
Ġa t
c t
Ġ N
r a
o s
Ġ1 9
Ġa n
Ġ it
he r
ro m
a nd
u m
Ġ J
es t
0 0
Ġh is
Ġ E
a g
a v
a in
r i
o d
Ġf rom
Ġ O
is t
Ġc om
Ġ v
Ġp ro
o p
il l
o re
i f
l d
u p
Ġ r
e w
er e
re s
ig h
ĠI n
i es
Ġd e
b er
ar t
ar d
or t
Ġs e
ic h
Ġw ere
at e
al l
a k
an t
o c
u d
a p
q u
Ġe x
on g
a b
Ġc h
Ġo r
Ġ K
g h
e ar
es s
at ed
Ġp l
Ġs h
it y
i p
iv e
am e
Ġ U
Ġ â
Ġh ad
ec t
ac k
ĠS t
Ġâ Ģ
Ġs u
as t
s e
re d
Ġ k
g e
Ġwh ich
ou r
m ent
Ġ le
u nd
Ġa re
i an
o v
i al
Ġn ot
el l
Ġs p
o st
Ġ y
igh t
i a
or d
u st
ar y
in e
t her
p t
r it
Ġ 3
ou n
p p
ic al
ĠC h
av e
Ġ un
Ġ2 00
c c
Ġin c
f ter
ou ld
Ġ V
Ġb ut
ir st
is h
ou s
t e
f f
ion s
s o
Ġcom p
Ġ2 0
id e
Ġ ro
u re
Ġw he
Ġa r
u b
Ġcon t
i e
Ġ ;
o g
ig n
Ġf irst
Ġc l
w o
Ġhe r
r y
u e
Ġit s
as s
Ġthe ir
or m
ĠâĢ ĵ
o k
or k
Ġin t
Ġre s
ĠH e
Ġ :
at er
Ġal so
Ġa b
on d
Ġa d
om e
ou t
r an
m er
i re
he d
r u
Ġ us
ag e
d u
Ġ 4
im e
l ow
Ġp er
p er
Ġwh o
Ġ 5
ĠT h
Ġon e
Ġh ave
Ġs c
p l
al ly
ow n
i le
Ġre c
t ed
Ġ1 8
. @
Ġ@ .@
Ġt wo
it ion
u gh
i z
re e
en ce
ur ing
t s
p ort
Ġbe en
Ġp art
Ġb ec
ic e
Ġh as
Ġa g
ĠA l
Ġa pp
Ġ20 1
, @
Ġ@ ,@
ou gh
Ġ j
Ġ en
Ġd is
l ud
k e
Ġo ver
Ġs er
Ġth is
or y
el y
Ġy ear
ation s
em ber
re n
ct ion
ou nd
ac h
Ġof f
Ġa fter
r ic
Ġ up
l and
Ġd es
ac e
Ġpl ay
ĠI t
ar k
o ver
an ce
Ġo ut
Ġthe y
Ġm an
ad e
Ġt e
ac t
Ġo ther
i b
m an
ul t
Ġ im
Ġ Y
p h
res s
Ġinc lud
c ed
en s
ur n
w n
Ġw ould
in d
Ġt ime
on e
Ġint o
Ġp re
v el
ĠO n
ĠU n
w ard
w e
Ġw e
Ġh im
it e
o in
at es
Ġ 6
Ġs he
l es
Ġe v
Ġat t
il m
as ed
Ġn e
it ed
ab le
e nd
i ed
as e
am p
Ġcom m
or s
Ġin ter
a re
ro ugh
o y
on s
oun t
e p
f orm
Ġal l
os e
o od
an g
Ġm ore
c es
Ġw ork
Ġ 7
a il
ol d
a w
er ed
ing s
v e
ĠA n
il d
Ġn ew
Ġs ec
Ġb et
Ġwhe n
in al
Ġf e
Ġf ilm
ic k
v i
ent s
ĠS e
at t
w ay
f t
is s
a us
Ġ 8
f er
g an
ĠM ar
re at
Ġcon s
ri b
ĠA r
ro und
ak e
Ġre m
v ed
Ġt r
Ġd ec
as on
an s
Ġd uring
or th
Ġ und
Ġ 9
ub l
h ip
Ġag ain
ĠA s
Ġm ost
Ġg ame
ot h
Ġthe m
Ġ19 9
Ġon ly
Ġp r
we en
at h
i x
Ġe ar
ol low
Ġth an
o b
ro p
Ġs up
ation al
ĠN ew
f ore
Ġab out
Ġpro du
u g
Ġc ent
ter n
Ġk n
Ġre t
e y
Ġch ar
Ġs ong
Ġc an
ou th
Ġbet ween
Ġl ater
or n
Ġre le
Ġund er
ic t
Ġth ree
t on
h n
r on
Ġc ol
Ġa ct
Ġ 00
al s
Ġ qu
Ġth rough
ĠE n
or ld
o ok
Ġn um
Ġs o
Ġm e
Ġa cc
Ġre l
Ġwh ile
Ġ ra
Ġe nd
mer ic
ĠA meric
le ct
Ġf l
ĠL e
ter s
oc k
r al
Ġp os
Ġsu b
e ver
Ġas s
ul ar
at ing
Ġwhe re
Ġ ver
Ġd ay
c k
Ġre g
Ġsec ond
ĠC om
a id
en er
Ġb u
is ion
Ġm ade
am es
iv ed
ĠR e
Ġp e
he s
Ġrec ord
s on
Ġde f
b um
Ġf our
Ġg ro
Ġf ollow
Ġse ason
Ġ00 0
Ġe p
Ġfor m
Ġs ome
Ġsu ch
Ġa m
o ol
is hed
Ġm ov
Ġbe fore
Ġt ra
ĠS p
Ġm us
Ġthe re
Ġw rit
he n
ic s
i o
ĠJ o
Ġsp ec
i el
Ġ1 0
i ke
Ġs y
Ġyear s
Ġte am
ĠA t
od e
u al
ĠTh is
Ġ /
id ent
Ġl ar
ĠS h
Ġal bum
Ġin d
ro s
il y
ow ever
Ġ ent
n ing
Ġus ed
an k
Ġc all
Ġs ur
if ic
Ġa c
Ġh igh
ur y
Ġp ubl
Ġbe ing
Ġep is
ain ed
Ġthe n
l ed
t en
a j
vel op
Ġl oc
Ġd o
Ġex p
if e
r is
Ġagain st
Ġ1 7
Ġin v
Ġ 0
Ġb l
Ġp res
Ġnum ber
ot her
ĠA fter
Ġsh ow
Ġchar ac
i ous
Ġse ver
Ġad d
Ġc o
e k
Ġs et
in ce
j ect
ĠB rit
ar s
Ġbec ame
Ġre ce
aus e
Ġper form
Ġle ad
Ġinclud ing
in es
Ġn o
ĠâĢ Ķ
Ġs ing
at her
in s
ran s
ĠUn ited
Ġf ound
a ir
Ġw ell
Ġm on
Ġre p
ĠS c
al e
Ġp ol
Ġb ack
Ġb oth
Ġc ap
i er
Ġ19 8
Ġ1 5
Ġser ies
Ġ1 2
o ber
r am
i k
Ġsh ip
ĠC on
ow er
em ent
it s
er t
u res
i red
le y
ĠW h
ĠS he
iv ers
Ġm ain
Ġ19 4
p en
Ġm in
i et
d er
over n
Ġd id
v en
ol og
Ġg o
el f
Ġc re
Ġim p
Ġde velop
a z
Ġm et
it ies
iv er
ĠEn g
Ġl ong
an y
l l
is ed
er m
t ing
u ch
a red
Ġe m
an n
an e
Ġm ill
ir d
f ul
ĠJo hn
Ġm at
Ġa ir
Ġepis ode
te nd
ire ct
Ġs aid
Ġst ud
Ġman y
ut e
Ġb ro
Ġde p
Ġc ar
at ive
as h
Ġc ould
Ġ1 6
Ġw ar
Ġor ig
Ġcont in
ĠC l
Ġsever al
ĠAmeric an
th ough
ĠI nd
Ġd if
iel d
a h
Ġp op
Ġin st
ou se
is e
em b
Ġkn own
Ġ19 7
ĠA ust
t y
u ally
Ġ19 6
Ġ1 1
Ġcon c
t il
i am
ĠW ar
vi ew
ers on
Ġo b
ĠG er
u ed
Ġs m
Ġret urn
Ġbe gan
Ġ Z
Ġan y
Ġcomp le
Ġdes ign
er n
ĠD e
Ġdes c
Ġs ign
ros s
op le
ch ool
m y
Ġ est
is m
o ot
Ġt rans
cc ess
Ġpro v
ak ing
Ġfe at
ĠB l
id ed
Ġin f
an c
Ġr un
Ġear ly
Ġar t
iz ed
Ġd ist
Ġn ear
Ġmus ic
Ġo wn
Ġrele ased
Ġun til
Ġcall ed
ĠC ol
Ġe ff
ĠU S
im es
ist s
r id
un e
Ġres p
Ġb el
en n
Ġp ass
u red
st em
Ġf in
ĠM ay
ial ly
Ġd own
Ġp h
ut ion
Ġdis c
ment s
Ġc rit
x t
os ed
Ġd irect
Ġg ener
Ġal ong
Ġin s
i um
Ġmill ion
ĠBrit ish
g er
ul l
a x
ĠGer man
Ġgro up
Ġoff ic
v ent
Ġ1 3
Ġf am
e b
Ġthe se
aj or
Ġm od
Ġm ay
Ġ $
ce pt
Ġo pen
ĠA d
Ġm il
an ge
ĠB e
Ġp oin
u c
Ġl and
g g
Ġhis t
ĠA ug
Ġg overn
Ġs im
ĠSe pt
Ã ©
Ġsu ccess
ĠSept ember
ĠAug ust
et s
Ġo per
ĠW orld
er v
Ġatt ack
Ġg u
ib le
ĠA p
ĠSt ates
in k
Ġc ount
Ġus e
Ġs ame
ward s
y s
Ġdesc rib
Ġpe ople
ac ed
ĠF or
ĠI s
am ed
y p
Ġcharac ter
ĠAl l
Ġbec ause
el s
Ġ1 4
Ġv i
Ġl ike
Ġser v
ĠJ u
ĠF ran
Ġa round
g ed
Ġst art
Ġth ough
Ġ ed
Ġk m
ĠP l
Ġ19 5
Ġ Q
n er
Ġw in
ĠAust ral
Ġcon st
u es
r ing
Ġto ok
ru ct
Ġo cc
Ġb att
av ing
ĠO ct
Ġan n
Ġsup port
ĠN ov
ov e
Ġn orth
Ġfollow ing
Ġs ix
Ġe le
ĠC ar
Ġ19 3
ĠH owever
Ġsy stem
us s
Ġapp ear
Ġf inal
Ġcl ass
Ġrece ived
Ġhe ad
in ed
ĠOct ober
iv es
Ġp rom
Ġcons id
en e
ant s
r ad
l ing
il ity
ical ly
ĠD ec
ĠP ro
Ġ19 1
Ġst ate
Ġe ver
Ġbu ild
Ġe ach
re t
an u
Ġex t
Ġf ive
r ist
Ġa ut
ro l
Ġcent ury
ĠY ork
in a
Ġb o
Ġare a
Ġv ar
ĠThe y
Ġsm all
at ely
Ġw ill
os s
ĠN orth
Ġpart ic
g et
Ġl ife
iv ing
Ġre port
r il
ĠM e
Ġ ]
Ġ [
t le
ore d
ian s
ĠJ une
ĠB y
Ġc ity
ord ing
p ed
g in
Ġm ar
Ġm ajor
Ġpubl ic
Ġwe ek
ĠK ing
iss ion
ĠJu ly
Ġ %
Ġcon f
ect ion
Ġb and
ĠH ar
Ġre f
m ed
ĠNov ember
ur ch
in c
ĠCom m
Ġre st
ĠP h
ĠW ill
Ġs ince
Ġw orld
Ġm ed
es p
ra ft
Ġsing le
ra ph
p or
ĠAp ril
b le
ain s
ĠM c
ri ed
Ġd et
om et
l ish
ĠMar ch
Ġj ust
ect ed
Ġl ast
ĠE d
ur al
ion al
he st
a im
c l
Ġt urn
iv ely
Ġp o
il t
Ġhe l
i ent
Ġal low
Ġ3 0
ĠC an
vi ous
ĠG e
Ġle ft
Ġlar ge
at s
Ġl ine
ĠS outh
Ġdif fer
al es
Ġc are
Ġs outh
Ġad v
if ied
ĠD uring
Ġst r
Ġd r
em pt
Ġb ook
Ġver s
Ġs l
Ġs chool
av y
ĠDec ember
Ġth ird
ag ue
Ġinc re
Ġ2 5
Ġmon th
Ġd ue
Ġapp ro
Ġplay ed
. .
Ġm uch
Ġev ent
ro w
Ġ if
Ġan other
ĠJ anu
ro te
ĠJanu ary
ĠP r
Ġinclud ed
Ġ19 2
Ġwh at
Ġpl ace
Ġb ased
n e
Ġsh ort
ĠI I
Ġgovern ment
on y
b all
ap an
Ġex pl
Ġp erson
Ġw rote
Ġtr ack
ĠW hen
Ġc amp
Ġt it
Ġo ld
al f
Ġp ort
Ġb re
ĠE u
Ġde ath
Ġn ame
ent ly
ĠJ apan
Ġe lect
p le
ren t
Ġ. ..
Ġen g
Ġw on
b y
i ence
ĠO r
Ġpro t
Ġch ild
Ġl it
o ad
Ġk ill
Ġpro g
ide o
Ġp ower
ag es
Ġst ory
ĠT e
ĠB ro
Ġre view
it al
od y
Ġv is
Ġh ome
ot t
Ġl ed
p s
Ġg un
Ġre qu
Ġdescrib ed
Ġpre vious
en g
om an
Ġfam ily
y l
ra nd
t ain
Ġw ay
Ġn amed
Ġn ow
Ġr ight
ĠM us
Ġd em
ur ther
i od
iv en
Ġm en
Ġev en
emb ers
il ar
ĠG u
Ġor gan
Ġm ake
re en
on t
is ter
c y
ivers ity
Ġatt empt
om in
iv ision
it ions
Ġb est
Ġc our
Ġ1 00
Ġre pl
ren ch
Ġ Â
Ġo pp
Ġle g
i or
Ġg ames
ac hed
Ġcomm and
Ġt erm
Ġh and
ĠA nd
iv al
ĠF l
m p
Ġpos s
Ġd am
Ġbel ie
Ġver y
o x
ĠH is
Ġth ose
ĠF eb
ĠEu rop
Ġp ar
ĠFeb ru
ĠFebru ary
s h
Ġis s
Ġst ill
Ġne xt
Ġto p
Ġspec ies
ĠCh rist
Ġeff ect
c hed
ri end
Ġvi ew
ĠThe re
ĠN ational
oc i
ak en
Ġorig inal
Ġsp e
ĠW e
en ces
at ure
l u
Ġw ater
n ess
Ġj oin
Ġadd ition
ĠEurop e
a u
Ġl ist
ĠB ar
Ġwith in
Ġper iod
et er
al k
Ġm embers
Ġbu ilt
ĠF rench
Ġm ark
Ġhe ld
Ġde b
ĠA m
Ġex per
h or
Ġ201 0
a f
Ġal though
Ġmat ch
Ġl ate
Ġfor mer
Ġrele ase
ĠP ar
re w
Ġg reat
rid ge
a ugh
Ġd est
Ġs old
Ġc ur
n ey
ut ed
tend ed
Ġv ideo
Ġ2 1
ard s
Ġc aus
Ġst orm
rop ical
ĠW est
l ine
v es
Ġc over
ec h
Ġt ri
Ġin it
Ġro le
Ġ X
ĠWill iam
s elf
Ġc ame
Ġest ab
Ġday s
he l
an ces
ĠH er
Ġres ult
Ġm id
o on
Ġpres ent
n a
le v
ag ed
Ġcont rol
ul ation
pt ion
Ġpol it
Ġst and
Ġre al
Ġh owever
it ary
h am
ĠM an
ĠM in
as ter
Ġ200 8
Ġpro p
le t
Ġw ind
en se
id es
Ġf ew
at ic
Ġ200 9
Ġ2 4
Ġto wn
ĠGe or
om b
Ġs ide
Ġy ou
og raph
Ġt w
Ġs k
Ġcontin ued
Ġp ost
Ġe qu
Ġof ten
ay s
ĠE ar
Ġloc al
Ġ201 1
el t
ĠCh ar
at or
ĠA ir
Ġam ong
ru ction
Ġsim ilar
c hes
ĠM ich
e ad
r act
ĠN o
Ġh um
Ġa v
Ġcl aim
es tern
un g
om en
es e
ĠEng land
re et
Ġ &
re ad
op s
ak es
l er
olog y
s ide
Ġdiffer ent
Ġd el
Ġbe h
Ġm y
ĠR ec
p ar
Ġf urther
Ġ2 2
Ġs ent
Ġt yp
es c
ot s
est ed
ur s
Ġle vel
Ġf re
ĠD av
er y
Ġconsid ered
Ġt ake
Ġl aw
t al
ĠE l
Ġ200 7
Ġcare er
g y
ĠOn e
Ġprodu ction
m e
Ġh alf
ar m
ĠP ark
ĠC o
ic es
amp ions
ĠC ity
Ġh aving
Ġan t
b o
ĠA cc
ĠEng lish
Ġe ast
Ġro ad
Ġm ag
Ġmov ed
Ġd ra
Ġw est
er ing
Ġever y
Ġwith out
ĠAl though
Ġc r
ro du
ĠC ent
Ġpos ition
Ġ201 2
Ġapp e
Ġpl an
Ġt ro
in ing
Ġplay er
ron t
Ġar r
ĠAn g
Ġhist ory
Ġc or
Ġbec ome
on es
ver s
ĠC al
Ġvers ion
Ġar m
ĠC ount
f ord
ond on
Ġc ast
Ġ el
Ġinf lu
Ġ2 3
iz e
ĠL ondon
ĠB att
y le
Ġh ouse
r ig
Ġf ore
Ġcomm un
Ġs ound
res ent
ir c
ap p
ro y
a ul
at ter
Ġinv ol
Ġstr ong
Ġg r
Ġsu gg
a i
Ġcl ub
Ġwrit ten
Ġ19 0
ain ing
Ġb as
ĠW ith
Ġst at
re st
oun g
Ġl ess
Ġann oun
ĠR iver
ut es
Ġf oot
i qu
Ġor der
al d
im ent
Ġre fer
iet y
Ġt em
g es
c raft
a e
Ġpro f
ĠCan ad
se qu
Ġa ff
Ġpoin t
Ġg iven
Ġr ad
Ġl ow
ĠG ener
Ġtr ad
Ġh ig
ĠUn iversity
Ġw ant
il le
Ġg ave
Ġk e
Ġp at
is c
u ck
Ġdef e
Ġim port
Ġne ver
a ff
ĠWh ile
ĠP ol
Ġch ang
Ġreturn ed
or ies
r ation
Ġs oc
Ġto tal
Ġv ict
ĠA b
ĠH igh
Ġf act
Ġf ire
Ġg ood
ent ion
Ġcom b
ĠT r
Ġcomp any
Ġcount ry
Ġw ent
ail ed
is on
s p
c ess
our s
Ġf riend
Ġcap t
ric k
ĠE x
a un
Ġpubl ished
Ġprodu ced
ay ing
Ġf ind
lev ision
Ġreport ed
c on
Ġorig in
Ġ200 6
ĠS m
Ġl ost
a ign
Ġst ated
Ġcomm on
Ġprog ram
Ġl ight
ing ton
Ġor d
y n
Ġpartic ular
ap e
ec hn
Ġad m
Ġinclud e
est s
ĠAcc ording
Ġlar g
ab ly
Ġ er
ur ric
ĠSt e
us ed
Ġcomp et
Ġfor ces
Ġrecord ed
ie f
Ġbuild ing
Ġp ress
Ġne ed
Ġb us
Ġpro ject
Ġn ort
ĠN e
h ing
um ent
Ġship s
Ġ2 7
Ġsh ould
Ġus ing
Ġe ight
Ġ5 0
os p
Ġ2 8
Ġperform ance
in ess
pl oy
Ġserv ice
ĠThe se
b s
ĠS w
Ġpop ular
Ġ ide
Ġt imes
Ġm aking
Ġt en
Ġair craft
oy al
Ġmil itary
ĠAustral ia
Ġhim self
Ġ201 3
at ch
Ġaut hor
Ġf un
Ġf ather
Ġbatt le
ampions hip
ĠS ec
le ar
n ed
Ġan im
ĠJ ack
Ġs it
Ġl im
ĠAs s
ĠA f
Ġsong s
Ġs omet
ou ther
Ġre ad
ens ive
it her
Ġcrit ic
ord s
Ġdevelop ment
ĠGener al
Ġs w
Ġ4 0
Ġh ow
al th
Ġg l
qu ad
ed er
et h
it ive
ĠSt ate
Ġ2 6
Ġs ol
as es
ĠC or
ol l
Ġc ross
outher n
am b
ĠJ ames
c er
Ġ18 9
Ġg round
Ġrep resent
ĠS y
Ġdest roy
Ġf t
ac y
Ġst ar
Ġst e
Ġrem ained
as tern
ĠAr my
k s
ri e
Ġn ational
Ġcharac ters
Ġg et
ri es
ĠP res
Ġsu ff
w ork
Ġmonth s
ĠB o
ĠCom p
a ur
Ġg en
Ġd ied
Ġt er
ubl ic
ĠG l
Ġdevelop ed
Ġtit le
d om
Ġs um
Ġfor ce
re am
f ic
Ġch art
Ġcamp aign
urric ane
ĠLe ague
Ġchild ren
land s
Ġint rodu
en cy
Ġp ra
Ġto ur
Ġprom ot
it ted
ist ed
Ġsign ific
Ġac ross
a el
ress ion
Ġs on
Ġre d
her n
Ġa way
ĠD ivision
Ġob s
Ġrel ations
Ġhist or
Ġoffic ial
Ġf ield
Ġf av
Ġf elt
o le
ĠAmeric a
le ge
Ġn ight
Ġf ac
Ġnot ed
ĠS im
al t
Ġre ached
ĠR uss
m ost
Ġannoun ced
ĠS up
Ġinter n
ĠJapan ese
ĠCount y
Ġare as
Ġcre ated
ĠR ep
c om
Ġc oun
ĠM on
ĠR oad
Ġte levision
Ġ200 5
ress ed
Ġsuccess ful
Ġst ation
ĠM ad
he m
Ġro ck
ĠRe g
im ately
Ġb ar
Ġv al
ĠSt reet
is ing
ĠG r
Ġvar ious
ĠâĢ Ļ
Ġ2 9
Ġpolit ical
Ġse en
Ġfollow ed
f ield
Ġa ver
Ġto o
i ber
iz ation
it ing
Ġr ank
ĠE ast
c ast
Ġser ved
et t
Ġperform ed
op e
ĠR ober
Ġc ult
re g
Ġplay ers
Ġ201 4
Ġcon d
Ġpr im
Ġre v
Ġf ull
in ation
Ġdec l
ĠGeor ge
al ity
Ġbe gin
Ġf le
Ġbl ack
du ct
Ġcon v
ell ing
Ġp ut
Ġc irc
ĠS er
ĠP er
Ġear l
ĠPh il
ĠT o
ol ution
Ġc ost
ab or
ĠH en
Ġse e
Ġd iv
id ence
Ġpro cess
Ġn on
Ġst yle
y ing
Ġl ook
Ġkill ed
Ġc y
Ġv ol
Ġse ven
Ġa ud
ĠE m
ric t
Ġt ropical
Ġhel p
l ished
Ġle t
pl ay
Ġthrough out
Ġt aken
ĠB ill
Ġf ight
Ġab le
an a
Ġdisc over
Ġag re
ec ut
ur g
Ġw id
Ġlit tle
Ġsignific ant
ert ain
Ġbec om
Ġa ge
Ġh it
ĠS ch
Ġf em
Ġ ident
Ġme et
way s
ĠTh om
ĠAustral ian
Ġt echn
Ġspec ial
ir l
Ġst ruct
o ice
Ġf ront
Ġwrit ing
Ġc op
Ġthough t
Ġm m
Ġbro ad
Ġestab lished
en ced
av al
ĠA ct
ĠDav id
i us
ĠP art
Ġappe ared
ĠM or
Ġent ire
Ġcol l
Ġdo es
ep end
Ġmil es
c il
Ġy oung
Ġ !
Ġco ast
ĠR ich
Ġpoin ts
Ġb ody
Ġa ward
l ess
Ġro ute
od es
Ġimp ro
ough t
Ġm ember
ri pt
g round
ĠM ed
iv il
Ġr ange
Ġact iv
as k
ir on
st er
Ġw omen
i ers
ĠP e
Ġstart ed
Ġcaus ed
ĠY ou
Ġdec ided
in t
ble m
lect ed
ĠAf ric
Ġfeat ures
Ġp ain
d ay
Ġgener al
ĠQ u
at ors
Ġevent ually
i ec
m en
um b
op h
con om
ĠR oyal
Ġar ch
og n
u k
Ġr ace
d en
Ġv ot
it ar
he re
Ġfe et
Ġgro w
Ġman ag
pp ed
ĠH ist
us h
ber t
Ġadd ed
ris on
Ġt re
Ġh old
Ġc ut
Ġto get
Ġtoget her
Ġ18 8
ĠH ouse
Ġform ed
iv id
Ġloc ated
Ġon ce
Ġwh ite
Ġst ri
ree k
am ent
amp le
Ġn ov
Ġar g
Ġmod ern
ur b
Ġcon n
Ġen c
o ff
ĠBl ack
d le
ĠP ort
Ġinst ead
he ad
Ġro und
rough t
Ġ3 1
ac es
Ġ esc
ar a
em y
Ġb all
ĠIn tern
Ġm ix
Ġimport ant
Ġcre w
c ing
Ġp ri
Ġs aw
e e
Ġa ction
Ġcomple ted
ĠIt al
Ġre du
ĠInd ian
id s
ect s
Ġplay ing
r ated
ĠO ther
c ent
one y
ell s
Ġ200 4
Ġb ase
Ġpop ulation
at a
Ġsur v
Ġins p
Ġm ater
Ġm ot
ĠM y
Ġst age
ĠMich ael
Ġv oc
Ġgun s
Ġr ather
Ġas k
Ġocc ur
Ġbeh ind
Ġopen ed
Ġother s
Ġ18 6
Ġf all
Ġre n
r ay
as ing
ce ed
Ġbro ther
wo od
ign ed
em ents
Ġcom ment
Ġl ik
l in
st it
Ġb orn
Ġs ite
Ġ201 5
Ġf if
Ġwork s
Ġl oss
Ġb omb
Ġl ive
Ġhe avy
ĠFran ce
Ġwork ed
fic ult
Ġm iss
Ã ¡
Ġp red
Ġsub sequ
med i
Ġl ack
ĠS chool
ra p
nd er
Ġcl ose
Ġpro blem
Ġpart y
Ġdif ficult
le ction
Ġconst ruction
ĠS ome
ĠW ash
ĠS an
Ġkn ow
ĠN or
Ġh ost
ar ch
Ġweek s
ist ic
Ġrelations hip
Ġorigin ally
Ġse par
Ġass oci
Ġre b
c o
Ġup on
Ġpr act
Ġapp oin
Ġlead ing
Ġpe ak
Ġv ill
Ġacc om
ĠHen ry
Ġal most
Ġdam age
ort s
Ġm er
Ġin j
l ic
ĠRober t
ĠA le
un k
Ġfour th
Ġ200 0
os ition
Ġsc ored
ĠBatt le
Ġin form
ap s
Ġre ve
ĠSt ar
Ġprov ided
Ġc ase
ĠMus ic
Ġm i
ĠB est
m ing
Ġcl os
bo ard
Ġeng ine
Ġinv est
Ġgo al
Ġac cept
ĠV ir
Ġc reat
ic a
Ġsc ene
ĠR ed
or ing
ĠD esp
Ġhum an
ell ow
in o
ĠR ou
u le
olog ical
ang u
Ġb rought
Ġ5 00
a ut
Ġf ree
Ġind ivid
Ġ18 7
ĠP aul
Ġfeat ured
ul a
Ġle ast
Ġk ing
Ġm other
Ġl aun
Ġallow ed
Ġwork ing
ĠPres ident
am a
Ġres ul
ĠM il
Ġto wards
ĠC ap
Ġaver age
Ġreg ion
Ġwant ed
Ġm ult
Ġtro ops
Ġind ust
Ġtrad ition
Ġbus iness
av es
ĠA g
ĠH ol
ĠWash ington
id ing
Ġpl aced
az ine
ĠQ ue
Ġqu ick
Ġv e
Ġc e
Ġe ither
v ing
Ġresp ect
Ġcrit ics
ĠB el
Ġoff ice
Ġh on
Ġav ail
k y
Ġre ach
Ġrun s
Ġex ample
ant ic
Ġprof ess
Ġmater ial
Ġrec ogn
Ġe conom
Ġ Ã
Ġf ar
g o
en ed
Ġw ife
Ġest im
t o
Ġar my
Ġne g
z e
ear ch
ch ie
ent ial
Ġf oc
ĠDesp ite
r ight
Ġ200 3
ĠF ollow
Ġse x
ĠC our
quad ron
Ġinter est
Ġs our
eng th
Ġjoin ed
Ġm ass
Ġra il
Ġd ou
Ġgener ally
ĠAng el
ĠH ill
en es
ĠH am
Ġpro per
Ġcur rent
u ff
Ġde v
ĠH all
our n
Ġev ents
Ġbelie ved
ĠG ame
Ġpartic ip
ĠC up
Ġ3 5
o f
it ch
Ġf ig
ĠFollow ing
ĠK e
v ille
ĠF irst
b e
re y
Ġb ill
ĠM ary
Ġrepl aced
ĠD r
Ġ z
Ġm ph
ĠG reat
Ġr ul
Ġvict ory
art ment
Ġdesign ed
ĠL ou
Ġg rad
Ġis land
ĠJ e
ict ion
s c
Ġso on
Ġn omin
x ic
it te
ĠL a
ĠG ro
o or
ĠM al
Ġf und
Ġh ours
er ous
ĠT wo
Ġem ploy
ific ation
Ġinvol ved
ĠEurope an
Ġpres ident
Ġro om
u el
al ed
ĠCh ampionship
Ġsur f
Ġst ru
ap er
v al
Ġfin ished
in f
mer c
as ion
w est
in ist
if f
em or
ĠM art
Ġbre ak
in n
ĠR oman
ĠPl ay
Ġh or
Ġsh ot
Ġcour t
ra in
Ġs aying
a ren
Ġth reat
ar n
Ġopen ing
ĠD an
Ġsc ore
ĠB er
Ġreg ular
ĠRou te
Ġdes p
ĠM et
Ġdirect or
ad es
Ġl ength
B C
ĠD on
c her
le g
Ġind ic
Ġh om
Ġlarg est
ĠM ac
ĠSc ott
Ġcon duct
Ġ ill
ou l
Ġhigh way
Ġcont rib
ant ry
Ġposs ible
Ġtra vel
Ġs outhern
n ow
ecut ive
Ġd ro
k i
ud e
ish ing
Ġmin utes
ip p
ĠC ro
Ġrem ov
Ġh y
ĠV al
ĠF rom
Ġhig hest
ic le
Ġearl ier
Ġt est
Ġ200 1
Ġinit ially
Ġl y
Ġavail able
ag o
ĠS ing
ann ed
ĠAt l
Ġparticular ly
Ġper cent
and er
Ġh ard
Ġtra ining
Ġse qu
ĠW il
ĠRep ublic
Ġfor ced
p ly
Ġex ist
ĠM id
ĠN avy
Ġm ust
h ib
ĠChar les
ĠKing dom
ĠM ag
ograph y
as y
ĠÂ °
ri an
ĠMc C
Ġp ark
ĠB ut
Ġresp ons
ĠO ff
b or
ate g
Ġend ed
Ġw all
r ac
Ġqu ar
Ġturn ed
Ġex c
ĠThom as
ĠIntern ational
em s
Ġstud io
ut ure
Ġsoc ial
ĠP al
ĠD ep
ra g
Ġch ange
if orn
ĠCh urch
i os
ĠR es
he ast
Ġl angu
ĠWh ite
Ġpra ised
Ġpass ed
Ġnort hern
Ġsup er
Ġpr iv
Ġp iec
Ġincre ased
at ural
Ġob ject
ĠVir gin
r up
Ġh urricane
Ġ200 2
Ġreg ard
Ġed uc
ĠBro wn
Ġcent ral
Ġke ep
ight s
Ġph ys
it or
Ġun its
Ġrel ig
Ġnov el
Ġappear ance
Ġspe ed
ĠCanad a
s el
re m
ĠS l
Ġp ast
ĠCal iforn
ĠM er
ers hip
ĠR ock
ĠS en
Ġst op
ke y
end ed
Ġim medi
Ġc ou
Ġch urch
ĠB ay
Ġord ered
oc r
Ġdis p
u ter
Ġsy m
ĠSm ith
st on
ĠM o
Ġme as
iqu e
augh ter
Ġt reat
fer ence
Ġt aking
ry ing
ĠS am
ĠRich ard
itte e
Ġmov e
Ġind epend
Ġsign ed
ĠAle x
Ġl ove
il ities
Ġa chie
ĠCaliforn ia
Ġbet ter
et work
Ġp ers
ĠUn ion
it z
um p
ak er
Ġwind s
ĠG overn
Ġa p
ec ess
ar ily
ĠG od
Ġin n
n el
ĠIs land
Ġw at
Ġen ough
Ġcom merc
Ġpos itive
ĠCour t
ear s
Ġh ous
um e
Ġacc ording
ank s
ell ed
Ġsp ent
Ġab ove
Ġs low
Ġgo ing
Ġp ot
Ġout side
ĠV ict
ĠB ra
ĠT om
Ġfilm s
ĠM ill
m a
u ation
ap t
ĠA ward
Ġto ld
ĠU p
Ġfe el
ber g
ĠC ong
Ġfoot ball
Ġc lear
Ġprevious ly
qu are
Ġst ates
Ġ199 0
ĠA c
Ġ6 0
Ġme an
and ing
Ġn ine
Ġqu est
ĠComp any
Ġrecord ing
ĠAss oci
al ion
Ġp ur
Ġsub ject
at in
he t
us ion
ĠAr t
Ġf ailed
ren g
Ġass ist
Ġe y
Ġrequ ired
Ġcom e
ow s
os ing
Ġ4 5
Ġpro b
Ġele ments
ĠGerman y
v an
id a
Ġc ru
ĠSt ud
Ġl ower
ĠM ark
ĠInd ia
Ġreview s
Ġinter view
ed y
Ġpart s
Ġph ot
ĠG old
Ġits elf
ĠP eter
s hip
Ġn ar
Ġth ink
ĠChrist ian
n es
Ġs il
ran ch
Ġdirect ed
ĠN Y
Ġab s
is l
ib ility
Ġdesp ite
Ġ esp
Ġf low
Ġc red
Ġcont ract
am er
Ġ18 5
ok e
ĠTh at
Ġdeb ut
ĠP at
ĠÂ £
Ġ ?
ĠT imes
read y
er ved
Ġacc ess
Ġbegin ning
le b
Ġgroup s
on na
o id
ĠCol lege
ĠC ast
Ġs ection
Ġb i
Ġvi ol
ab ility
ĠU K
hest er
Ġwh ose
ĠS ov
ĠB r
as ons
Ġclaim ed
Ġl ines
Ġtrans fer
ĠW estern
Ġpre vent
Ġintern ational
Ġask ed
Ġst reng
ĠD em
Ġsc reen
m ar
Ġc he
air s
Ġg ive
on se
rie f
Ġbe g
Ġk ey
ĠMe xic
ĠSov iet
ĠD o
Ġun c
ĠSp an
Ġaddition al
ĠF ilm
Ġf uture
ĠFran k
Ġfor t
Ġwh om
ĠG rand
Ġle ague
Ġo p
ĠB en
Ġpo or
Ġg old
ĠA wards
ly ing
Ġd on
on st
Ġintrodu ced
Ġpre m
Ġse a
Ġev idence
it es
Ġquick ly
Ġide a
e x
Ġc al
Ġcent er
Ġal ready
Ġ3 2
ĠFor ce
Ġb ridge
ĠS oc
at ory
ec k
Ġfre qu
us p
ĠM ost
Ġem b
Ġocc up
Ġele ction
Ġ197 0
Ġprodu ct
Ġex cept
Ġcy cl
e um
ĠC oun
b ack
e al
Ġp il
Ġde al
Ġp en
Ġarr ived
ir th
Ġbl ock
ec ially
Ġw estern
Ġ198 0
Ġc ivil
ar ing
ĠBrit ain
ĠR ob
Ġus ually
Ġrad io
Ġmus ical
un t
ĠO ver
ul ly
ĠD ay
l iam
er gy
ĠI m
ĠP ac
Ġsomet imes
Ġfem ale
Ġdec ision
Ġresp onse
Ġf ood
Ġstud y
Ġmag azine
ĠL ater
Ġm oney
ĠVict or
Ġesp ecially
ĠH ot
Ġiss ue
ĠB ur
as c
Ġl ab
ĠT ra
Ġfl ood
Ġ -
liam ent
Ġlit er
Ġsurf ace
Ġen v
g en
Ġcar ried
r ack
Ġm ight
Ġestim ated
ĠR h
Ġgu itar
Ġcommun ity
en a
ain t
Ġconst ruct
ĠCh ic
it er
Ġshow s
Ġrem ain
Ġdefe ated
Ġar ran
Ġe astern
ig an
Ġ199 9
Ġrem aining
ar ies
Ġmin or
ĠEar ly
Ġdet erm
in ent
ĠM ount
Ġw ood
h a
ra w
Ġappro x
ess ion
Ġlar ger
Ġra p
ul f
Ġbecom ing
ĠVirgin ia
ĠIn f
Ġcomple te
Ġpol ice
Ġ3 6
ra b
r or
por ary
Ġsh oot
Ġ8 0
Ġteam s
Ġent ered
Ġmed ia
Ġsugg ested
Ġpress ure
ric s
Ġl atter
N A
ĠL os
Ġcommerc ial
ĠJ ust
and s
er ve
Ġan al
Ġinvest ig
Ġsur round
Ġd oc
Ġl o
Ġconsid er
Ġmark et
Ġb rief
Ġconc ern
is es
ĠSec ond
Ġstud ents
Ġb ur
Ġperson al
in ct
Ġpr ison
eder al
ĠI f
ĠTe x
ĠF le
Ġac qu
Ġdisc uss
Ġc ertain
Ġcomple t
all ed
Ġappoin ted
Ġeffect s
ĠJack son
Ġpri or
Ġd er
Ġsum mer
Ġh op
Ġs at
ch ange
ĠCon t
inc ip
Ġepis odes
Ġt ar
Ġr iver
ĠFl or
Ġst aff
ent h
Ġe mer
Ġs ize
ly mp
Ġdestroy ed
ĠLou is
Ġchang es
ore s
ul ated
Ġcomm ission
Ġr id
im ate
Ġsc enes
Ġwin ning
Ġfle et
s y
Ġlim ited
om m
is er
Ġle aving
ĠSpan ish
Ġde g
ĠO lymp
t t
ĠCl ub
Ġp ay
I I
Ġd en
Ġ7 5
Ġdra w
g a
qu e
s u
l o
rig ade
Ġs elf
Ġprov ide
id ents
Ġright s
Ġpol ic
Ġt rib
t ies
ourn al
Ġtyp e
i res
Ġd ate
ens ion
r d
Ġwrit er
Ġf ail
s en
ĠD u
Ġter rit
ar i
Ġk il
Ġtrans port
Ġprop osed
Ġinflu ence
Ġover all
Ġd ivision
Ġg irl
om s
ĠK h
Ġstruct ure
ĠG reen
ines e
ĠPart y
Ġt ax
Ġ196 0
Ġequ ip
Ġcont ro
Ġ18 4
Ġsc ript
ir al
Ġ3 00
ĠT er
Ġb r
Ã Ń
Ġagre ed
ĠAssoci ation
Ġin tended
at ives
Ġant i
A A
Ġj ud
Ġrun ning
ĠP ri
if t
end ing
ĠEd ward
ic les
ĠAd m
Ġd aughter
Ġde ep
Ġsupport ed
Ġw ide
Ġb ow
Ġp urch
Ġnear ly
Ġb ig
ĠChic ago
Ġbroad cast
ĠM any
im um
ĠCh inese
Ġestab lish
ĠO per
Ġd i
Ġres earch
Ġhel ped
Ġmov ement
Ġ199 8
ĠR o
Ġmar ried
Ġaward ed
il i
Ġint ens
Ġmult ip
ĠI r
ĠCoun cil
ĠS ong
il es
at ively
ac ing
Ġfav or
Ġdis s
Ġcre ate
ir m
Ġd ark
ĠS al
Ġs usp
n y
p ris
te en
om er
ĠK ore
Ġb ird
ĠEn ter
Ġst ars
Ġlong er
Ã ¶
Ġlangu age
c he
Ġc at
Ġcapt ured
Ġpl anned
Ġhig her
u z
Ġincre asing
m on
Ġcomp ared
ĠE v
Ġf ans
ĠS erv
ĠE mp
Ġconc lud
Ġcour se
ĠSup er
Ġchang ed
Ġ3 3
Ġapprox imately
Ġexper ience
Ġfeat ure
sel ves
Ġl iving
ĠJohn son
ound s
Ġrel ated
Ġd one
Ġfif th
Ġthem selves
ent y
Ġ7 0
ĠHist ory
ab it
Ġwith d
ĠPac ific
t ained
b ers
a rent
Ġprodu cer
Ġmost ly
Ġtem per
Ġtrack s
is ions
ĠB ack
s s
ĠIn ter
Ġsp ace
Ġoper ations
an ced
i j
c an
Ġde ad
ut h
ĠBill board
um n
ĠA pp
Ġth us
ol ic
ĠN ot
ĠB et
Ġw oman
Ġsy n
Ġim m
Ġrem ains
Ġb ring
ĠM ont
th ing
Ġquar ter
Ã ¼
Ġsold iers
im in
Ġ ult
Ġo ur
Ġn atural
oin t
v in
Ġwhe ther
Ġwe ap
Ġprob ably
Ġf ace
Ġd ram
Ġcon cept
and ed
Ġr an
ĠF inal
r ast
ĠSc ot
b our
Ġbatt les
Ġbuild ings
Ġcop ies
Ġcomple x
Ġre act
Ġ199 7
ĠS un
ĠS ince
Ġfor ward
Ġlead er
Ġdep art
ĠK n
Ġly rics
Ġex tended
Ġb oy
Ġv oice
ir ing
it t
Ġhe av
Ġbo ard
Ġch all
osp ital
Ġiss ued
ĠAtl antic
Ġ3 7
g ing
ve y
Ġsuff ered
Ġre ally
ri age
Ġcount ries
r ate
ĠF ort
ĠL ake
ĠB ig
ur t
Ġc m
ĠSe ver
ĠCong ress
ĠFran c
Ġinclud es
Ġimmedi ately
ĠL ove
ĠFlor ida
ĠB oth
Ġmet h
Ġgo als
Ġat tend
ĠJ im
ĠJ ew
Ġcap ital
h ood
Ġpriv ate
Ġmix ed
Ġmanag er
Ġoffic ers
i ant
Ġlik ely
Ġcan n
Ġbre ed
ĠO ld
Ġremov ed
Ġm ach
Ġpl ant
i en
ĠSe a
ven ue
b ury
h old
d e
Ġdist rib
Ġce leb
ĠD ist
Ġincre ase
Ġsubsequ ently
ĠTex as
Ġinit ial
ĠQue en
ĠCh ina
Ġm ount
ĠT own
ĠP et
Ġhe alth
ect ions
ri a
Ġal ways
Ġle ave
Ġpl ans
Ġcomp an
Ġstat us
ord er
Ġfoc us
ri al
ĠT or
Ġloc ation
Ġv ia
ĠAn other
ĠT rans
Ġserv ices
ĠL aw
Ġn etwork
Ġvis it
Ġc oin
ĠM r
ĠAn t
am s
ĠC amp
Ġm ur
Ġproblem s
i ation
Ġoff ered
Ġfl ag
Ġcol on
ĠH ow
w ell
ĠL ord
ĠEar th
Ġinst r
Ġterm s
Ġappro ach
ail y
ĠO l
ous ly
et ic
Ġn orm
ĠCon st
Ġt ons
ct or
Ġvill age
oun ted
Ġmod el
Ġf ell
Ġsomet hing
w er
ill s
Ġadm inist
ĠB oy
Ġt or
orn ing
ĠT ur
Ġcoun ter
Ġmajor ity
Ġs ch
ĠW ood
iron ment
Ġprofess ional
Ġ18 3
ĠCanad ian
b urg
ĠI ts
Ġinter s
ad ium
ĠAfric a
ib r
Ġg ot
ĠR ail
Ġdam aged
Ġcons ist
Ã ³
ac hes
ĠM ur
ur ies
Ġc ause
Ġad op
Ġmeet ing
Ġj ob
Ġappear s
Ġmin ute
ĠS quadron
ĠCent er
ĠG re
Ġrank ed
Ġl ay
Ġindivid ual
ol k
ĠRuss ian
st e
ce an
Ġattack s
u f
Ġcomp osed
o es
if y
ĠHigh way
Ġ9 0
it ect
ĠR ad
Ġreve aled
Ġfl ight
Ġan g
Ġpl ot
Ġdiscover ed
re ak
Ġra ised
um ed
ĠM el
l or
Ġfin anc
ĠK ent
ĠCent ral
Ġrespect ively
Ġm akes
ĠCar ol
p an
Ġassoci ated
ĠMart in
ĠS ir
Ġ199 5
Ġnum erous
Ġd omin
ĠII I
a ult
Ġan c
ĠAngel es
Ġt akes
Ġal tern
g ar
Ġneed ed
Ġ3 4
Ġinsp ired
Ġl ived
ĠB ow
Ġco ach
Ġlaun ched
o e
Ġy et
Ġam b
Ġg rand
ri ption
Ġattack ed
Ġc and
Ġp ow
Ġoccur red
Ġn ature
Ġg ra
Ġd ig
Ġattempt ed
um ents
Ġcont ains
Ġve h
Ġsh own
ĠD V
Ġb ene
Ġh our
ĠM iss
Ġcond itions
est ival
d own
Ġmov ing
Ġup per
u als
ĠD es
im b
i est
Ġ3 8
k a
k en
ĠT V
ĠY ear
ĠGro up
ect ive
Ġcol lect
Ġs ales
ĠT our
j oy
or ce
augh t
ĠD el
ur ity
Ġ201 6
Ġiss ues
Ġ199 6
Ġy ards
Ġ195 0
Ġb irth
Ġex am
Ġsl ight
ĠRe v
ĠEmp ire
iz ing
Ġs al
Ġwho le
Ġc er
w in
Ġ i
Ġinform ation
u ing
Ġrefer red
Ġf arm
Ġm om
o ly
ĠO ut
Ġbo x
Ġcrit ical
ver t
ĠU nder
Ġdefe at
Ġs en
Ġp it
Ġse lected
Ġsmall er
Ġresul ted
Ġnum bers
Ġfin ally
re me
Ġb ad
Ġinc or
ĠP enn
Ġelect ed
ĠG ar
Ġst ay
Ġgr ant
Ġqu al
Ġsc ient
Ġact ive
Ġsing er
on ic
Ġpr incip
ĠItal ian
Ġsec ret
k in
Ġm ission
it ation
u ated
ĠJ ose
Ġ199 4
Ġoper ation
and on
Ġstand ard
en ant
Ġindust ry
Ġen s
Ġlarg ely
Ġass igned
Ġs em
Ġpre c
Ġl ink
us e
ort un
Ġth r
ou ra
Ġleg isl
Ġs af
Ġear ned
Ġcomment ed
ĠCor ps
Ġexp ected
Ġm ale
it ude
il ed
Ġaud ience
ĠDV D
ou d
Ġsugg est
ã ĥ
Ġlist ed
ĠAr m
Ġro y
Ġcover ed
ĠD is
Ġg re
ĠC rit
Ġun able
Ġpur p
ire ction
Ġsc hed
ĠMich igan
Ġtradition al
Ġhe art
ĠC r
Ġtr ade
Ġart ist
Ġdou ble
ĠV iet
Ġref used
Ġeduc ation
y a
Ġcl osed
Ġnew sp
g r
Ġfriend s
Ġa w
Ġrec over
Ġunder st
oun ts
Ġprim ary
ag on
ĠP re
Ġatt ention
Ġmeth od
hip s
og ue
Ġt alk
igh ter
ter ed
Ġbel ow
Ġs ister
Ġk ind
Ġpl at
ff ic
ĠW ales
Ġoffic er
Ġcont em
Ġre ason
Ġdep ression
Ġ194 0
Ġperform ances
Ġab ility
Ġen joy
ĠM ass
o o
Ġme ant
Ġw alk
Ġdecl ared
ĠN ort
Ġfight ing
Ġ4 9
Ġbl ood
pl es
ĠM ore
Ġg iving
Ġ18 0
Ġcommand er
und red
Ġw ord
is her
Ġmid dle
Ġlet ter
Ġthe at
Ġcomp l
Ġrelig ious
ĠC ath
Ġm ax
Ġh ot
Ġset t
ĠC le
Ġbook s
ĠO x
Ġr ate
on a
ĠAr ch
Ġmat ches
il s
Ġn ames
ĠSt ep
ĠC are
Ġrecord s
ĠL ong
ĠAc ad
ap ed
ĠDem ocr
Ġconst it
ĠB ec
Ġun it
ĠF er
Ġprodu ce
Ġquest ion
ĠT est
ĠZ eal
ĠTe am
Ġcent re
ound ed
Ġser ious
Ġcompet ition
Ġto uch
u x
ĠM ajor
Ġ ri
ut ch
ant asy
od ies
im s
Ġdis app
Ġvoc als
ect or
Ġab andon
Ġm ention
os h
ĠMin ister
ĠSever al
Ġrap id
i ences
Ġ4 1
Ġ199 2
ro ad
ir t
qu ar
ic ted
ĠW al
Ġacc ount
ĠC ons
Ġdoc ument
Ġn ecess
Ġkil omet
a res
Ġm or
Ġen ergy
erv ation
ech an
Ġconstruct ed
ĠF ore
ĠK enn
Ġd ut
en ing
os es
Ġthem e
ĠZeal and
Ġr is
ru g
Ġst ra
ĠF ox
ish op
ri er
et te
Ġc as
ĠS um
Ġhigh ly
Ġnear by
Ġp ick
ĠT ime
y r
Ġsepar ate
Ġroy al
Ġpos itions
Ġpre p
ail s
Ġcontin ue
ĠMexic o
ĠE r
Ġdr um
Ġt ur
ĠS ar
Ġeff ort
ĠS o
Ġcomb at
vent ion
ed ic
Ġch ief
ĠB u
ĠAfric an
Ġ4 00
ĠH aw
ĠM att
Ġpresent ed
Ġann ual
Ġredu ced
ĠM a
ĠF our
Ġcontro vers
et her
op er
emor ial
ib ly
ie ut
Ġdirect ly
ĠCh ris
Ġ193 0
Ġlevel s
Ġc le
Ġ5 5
Ġme ans
Ġnot es
Ġne igh
c el
Ġse vent
Ġt ried
Ġat tended
Ġf ast
Ġpract ice
Ġh ar
ĠW all
it a
Ġfore st
ad o
Ġcomp os
sh ire
ĠB rad
Ġed ition
ĠD ar
v ement
ĠMad onna
u it
Ġtra in
ĠB ob
Ġn uc
ac her
Ġmet al
ĠCh art
Ġaccept ed
aren ts
Ġtw enty
Ġst ating
Ġ199 3
ĠT re
os en
Ġ199 1
Ġw atch
Ġarch itect
Ġmov ie
Ġconc ert
Ġte xt
Ġadv ance
is ation
Ġrep e
r ical
Ġcand id
ĠH el
Ġ17 9
Ġp air
t rack
Ġf r
stit ute
ĠScot land
Ġport ray
ir med
Ġd irection
i h
ĠJ ones
Ġse em
Ġdis m
ill ery
ew ay
Ġschool s
Ġleg al
h ouse
ĠThe ir
Ä ĩ
ers ey
l ict
ĠAn n
ĠInf antry
Ġth ick
Ġre ject
f all
ĠM anc
ic ip
w ide
ĠDep artment
in em
Ġas p
an i
ĠC ross
ag ing
Ġhor se
Ġg e
l ight
Ġp urs
Ġrec omm
Ġeff orts
Ġ +
Ġcol lege
a wn
Ġman aged
ĠD ou
ĠG o
Ġmar riage
ĠG reek
Ġend ing
Ġ3 9
Ġresult ing
l ike
ic ient
h y
ut ions
Ġrespons ible
ieut enant
ĠTh ree
ir it
Ġw ing
M S
Ġshow ed
ĠL it
b and
Ġdro pped
ĠP ost
Ġins ide
ĠM ic
Ġdis play
ĠB ost
ill ed
Ġcycl one
Ġ18 2
Ġn ation
ĠF oot
Ġenv ironment
Ġc ases
Ġke pt
Ġ4 8
per or
ĠC reek
ĠL ad
ĠLe g
Ġm orning
Ġcult ure
Ġra re
Ġc ust
Ġmean ing
ol f
Ġ4 2
Ġr at
Ġbeg ins
Ġd om
Ġincor por
Ġvar iety
ĠSt one
Ġhous es
ceed ed
Ġsub st
Ġch ampionship
Ġform s
p e
ran e
ĠServ ice
p ass
Ġar rest
Ġw ords
Ġcer em
ĠH ung
Ġsch ol
ce nd
Ġo il
Ġinc hes
ĠWilliam s
Ġcontin ues
Ġmark ed
Ġy ard
ĠRec ords
Ġsp l
ĠB C
ĠSec ret
Ġ18 1
Å į
Ġper m
in i
ĠNew s
ect ing
ol s
Ġsym b
g l
Ġsc ience
Ġb ank
gy pt
Ġus es
ĠS ur
Ġeconom ic
ĠSt an
w rit
ĠT ro
ĠH al
c le
t hel
Ġdef end
ĠPar liament
Ġsour ce
b ed
ĠG ames
ĠF in
Ġmet res
ĠT ri
Ġle ar
r as
Ġh undred
ul ations
Ġqu ality
Ġset tle
ĠP an
Ġ194 2
ĠB ook
Ġstart ing
Ġconduct ed
w h
Ġimp act
th ur
Ġallow ing
Ġs ides
Ġspec ific
ĠE gypt
Ġstru gg
Ġbe at
Ġpres ence
ĠSoc iety
ĠO h
ĠS ol
Ġam ount
e en
ĠJ er
Ġsup pl
sy ch
Ġch ap
Ġex hib
Ġview ers
Ġd u
Ġd ance
Ġcap tain
ing u
Ġp le
ĠV er
Ġr ule
Ġun ivers
Ġtransfer red
ĠL u
Ġdist inct
ĠS outhern
ĠPr ince
Ġ6 5
Ġmultip le
ĠStep hen
ĠL atin
d ing
Ġpot ential
ĠS at
ĠComm ittee
ĠGeor g
Ġfore ign
Ġcont rast
Ġ4 7
Ġen emy
ĠOx ford
Ġpeak ed
Ġtra ffic
in et
p ing
ĠSp ec
ar ian
ĠJose ph
it iz
Ġy our
Ġbecom es
ĠS il
Ġth ings
Ġm ess
Ġown ed
Ġfound ed
Ġgre ater
Ġport ion
ĠAdm iral
ĠL ike
Ġvoc al
Ġenc oun
Ġconclud ed
ĠC amb
Ġresp ond
ĠBost on
Ġattempt s
ian ce
k n
Ġo pt
an es
Ġrel atively
r ong
y m
Ġf ederal
ĠCl ass
ver y
ell ig
id er
ĠManc hester
Ġsc oring
ĠCh ief
Ġproper ty
Ġprim arily
Ġst ories
Ġcast le
Ġdem onst
ĠT w
Ġfinanc ial
ĠHar rison
ress ive
Ġact ually
ĠCap tain
ĠJe ff
ĠBec ause
ĠT im
ĠF orm
og rap
ĠBe fore
Ġanim als
Ġl if
Ġto urn
ĠBatt alion
ĠW in
ĠViet n
ĠH urricane
Ġobs erved
ĠSw ed
Ġcol lection
Ġopp ortun
ĠB at
Ġ4 6
ĠComm ission
f ect
ĠD en
Ġ5 2
ist ics
Ġtit led
Ġfeat uring
Ġwe aken
Ġstreng th
Ġ194 4
ĠDe f
ĠB ridge
Ġwrit ers
Ġw a
Ġin ch
ed s
Ġwrit e
Ġj ournal
Ġsit uation
ĠF red
um ber
e es
Ġw or
Ġm echan
Ġp aid
Ġsp ot
Ġfig ure
Ġdist ance
Ġcompan ies
ste in
Ġp arents
Ġ6 4
Ġprem i
ĠO tt
per ial
ĠLit tle
m as
re l
Ġindepend ent
Ġm el
Ġon to
Ġdiv ided
Ġact ing
Ġ4 3
Ġact or
Ġsh are
Ġm ind
Ġslight ly
a ud
ĠPro du
ĠPar is
ast ic
ĠL uc
ĠG ra
ĠCol umb
ĠCar l
ĠSer ies
Ġcoll abor
ĠL ife
Ġtar get
l am
Ġpiec e
Ġtor ped
ĠM od
Ġpower ful
Ġ4 4
Ġfun ction
Ġre form
ann a
Ġinn ings
Ġconc ent
Ġs elling
ĠEnter tain
or ation
th let
Ġer a
Ġro ugh
Ġr ating
Ġbro ke
os aur
ĠB BC
c hest
ĠM ax
ĠP op
m ond
ist ry
ĠO s
Ġto day
Ġplay s
rick et
ĠHist or
u ge
Ġult imately
Ġl ot
Ġwat ers
Ġtri al
Ġact ions
Ġch o
ann el
ĠCro at
Ġs quare
Ġmax imum
ro wn
ill a
er o
ad a
Ġte nd
it an
l oad
Ġinter p
Ġdis e
Ġcomplet ely
Ġb ound
Ġs ought
Ġl og
ĠAcad emy
Ġpil ot
Ġ192 0
Ġg ar
Ġbl ue
und er
rup t
Ġ ess
ĠMus eum
ot i
Ġ194 5
m ark
Ġsc ale
ĠH or
Ġ194 1
Ġdesign ated
Ġsoc iety
al le
Ġmain ly
ĠL ine
Ġstru ck
Ġ15 0
Ġh us
ot a
Ġbeh av
ĠS k
Ġcon ver
Ġcomb ined
Ġofficial s
ĠS aint
Ġnort heast
z a
Ġactiv ity
Ġpolic y
Ġv ess
Ġinflu enced
Ġtrans l
om y
ĠV an
yl van
c ers
ol ved
Ġse arch
Ġs ay
ent ed
ĠW ay
Ġw ear
Ġalong side
Ġs out
ĠB rigade
Ġc orn
A S
ĠItal y
ĠEntertain ment
Ġcall ing
rac ted
Ġb atter
ian o
Ġth ous
Ġsecond s
ĠA rab
wh ile
ĠAmeric ans
ĠCon f
ĠW ind
Ġse g
Ġsour ces
Ġn aval
ĠLe e
ĠI re
ors es
Ġback ground
Ġwin ter
ĠReg iment
Ġc row
Ġ ice
al a
Ġplat form
Ġnew s
Ġth ir
r ative
Ġwe bs
ĠT od
ph y
quar ters
ud d
Ġsu c
Ġrec ent
Ġm em
ain e
Ġg ained
Ġnomin ated
T V
Ġthe ory
ĠAl b
Ġart ists
on n
ĠA venue
Ġpromot ed
Ġwid ely
ub e
ad el
Ġconf irmed
ĠIre land
H L
Ġsystem s
Ġpass ing
Ġelect ric
Ġreach ing
Ġpro ved
ibr ary
Ġinv asion
ĠFle et
Ġresul ts
p son
Ġconf lict
ĠE ll
Ġgreat est
Ġsubsequ ent
ĠG ood
Ġexpl ained
Ġalbum s
Ġ iron
Ġcom ing
Ġpe ace
Ġnorth west
ou red
t own
Ġ ir
Ġcont ent
ĠA ut
he w
Ġs n
Ġsix th
Ġres ist
Ġ198 9
ĠR ay
Ġw ick
Ġchar ge
g rad
Ġcount y
A F
Ġhe ro
Ġ194 3
Ġwe ather
Ġshort ly
ĠOr ig
Ġsu st
Ġs ays
Ġad j
ag a
ĠB us
ĠS ub
Ġcaus ing
ĠVictor ia
Ġser ve
Ġvers ions
Ġ5 1
Ġp ath
ĠS ant
ĠL o
it ness
al ing
ĠT ropical
Ġexp ressed
Ġb order
Ġse ek
Ġb urn
Ġrece ption
ĠChar l
Ġres idents
ic ed
b on
ĠCath olic
ĠW ork
Ġem ot
Ġc ities
ĠN orm
Ġc hem
ĠAd d
Ġsound track
ans ion
ĠVal ley
Ġse asons
ĠN in
ĠM at
ip s
inf all
Ġs ense
ĠL ight
Ġg reen
Ġh ospital
Ġappear ances
Ġsex ual
ateg ory
t ation
Ġart illery
ĠD i
Ġp un
ĠMid dle
un ction
Ġident ified
Ġrequ ire
igh th
Ġhand s
Ġphys ical
Ġold er
ĠTh ough
ĠL ive
ard en
Ġd edic
Ġt ells
Ġtr ue
Ġoff er
Ġp al
ĠR am
ĠD un
ĠComm un
ys is
Ġk g
ĠL iber
ĠTh rough
ĠSh ow
Ġweap ons
ĠR y
Ġrepresent ed
anc y
Ġa head
Ġg as
Ġext ra
ĠM en
ĠFoot ball
ad ed
ĠT op
ĠY oung
ĠV ol
e ption
Ġheav ily
Ġim age
ylvan ia
ĠJ ul
ron ic
ĠK ar
Ġe as
ĠT ay
Ġdef ense
ĠD irect
l ers
it able
Ġchall en
Ġsup p
ĠUp on
Ġav oid
Ġag g
ĠB ey
Ġapp arent
ab eth
ĠD utch
ĠWe ek
Ġal one
Ġstud ent
Ġsp read
Ġstud ies
kn own
Ġoffic ially
Ġdist rict
ĠI ll
Ġhus band
Ġb it
Ġex ecutive
ĠEl iz
Ġprom inent
ĠF re
Ġinst it
Ġcons isted
Ġorgan ization
Ġst one
ess ions
Ġcapt ure
Ġdeb uted
ĠAl bert
Ġse nd
Ġinj ury
Ġf ired
ĠB ond
b ur
Ġw ild
port s
Ġpat tern
Ġequip ment
Ġpo et
Ġp ack
Ġpre par
Ġres c
Ġinstr ument
ĠF ar
ĠR og
Ġfig ures
ĠC ivil
ĠB re
Ġsur pris
Ġexp ed
ĠD am
urb an
us hed
Ġarg ued
Ġo x
Ġa ired
p ool
Ġe th
Ġr ing
Ġp ict
Ġcontem porary
Ġgrow th
Ġcou ple
Ġdo ing
ac ity
Ġreturn ing
Ġh un
Ġg raph
Ġfl oor
ro g
ĠH omer
Ġb ud
Ġmag n
Ġc ert
Ġp an
Ġwe ight
Ġl aid
Ġst ep
l ines
ĠSt orm
ĠNort hern
Ġear th
Ġdou b
Ġpiec es
Ġmat ter
Ġ6 00
Ġlead ers
Ġaff ected
Ġshe ll
Ġt un
Ġh abit
ĠG al
ap pen
ĠT em
Ġr ang
Ġmain tained
am ber
Ġhe re
in son
i as
Ġcommun ic
Ġmain tain
Ġterm in
ĠH ard
if ying
Ġprop os
Ġocc asion
Ġvis ited
em ic
Ġhy d
Ġspe ech
ĠDan iel
Ġcom es
Ġra in
Ġcritic ized
ent al
Ġactiv ities
st one
ol a
ĠH a
r at
Ġex ec
ac ement
ĠCarol ina
Ġto ward
Ġre ign
ĠJ on
Ġatt ract
Ġem ph
oc key
Ġtourn ament
Ġcrow d
Ġh all
ock ed
ĠOper ation
ul s
Ġc itiz
e ed
orn e
Ġsen ior
Ġtre es
Ġset ting
Ġsing les
Ġrefer ence
Ġd rug
Ġform ation
Ġ5 3
el ve
Ġad apt
Ġ198 7
Ġmed ical
iv ity
Ġsur re
Ġmur der
ĠMar sh
ĠSy stem
n ers
ĠScott ish
u ct
Ġworld wide
ĠGovern ment
Ġb ul
ĠR om
Ġt rying
Ġ198 8
ĠHol ly
ĠDist rict
Ġterrit ory
ĠF ield
est ic
ru it
Ġapp l
Ġneg oti
ĠO cean
Ġst ations
ĠW rit
Ġmach ine
emb ly
ĠBack ground
Ġd og
Ġra infall
Ġl oad
Ġclaim s
Ġdis pl
ĠGovern or
Ġf ellow
ell er
Ġd oll
ĠH ome
ĠCol on
Ġg od
Ġ8 5
Ġbird s
ĠF antasy
ĠDe v
g ian
ĠR od
Ġhistor ian
ĠGu ard
Ġf ully
ĠC he
res h
Ġacc ident
Ġc ell
ul ed
ĠPenn s
Ġris k
ot e
Ġval ue
om ers
Ġthere fore
Ġspl it
b it
Ġch osen
Ġsup ply
Ġgu est
Ġtreat ment
ra el
ĠSh ort
ĠDu ke
velop ment
Ġun iversity
Ġgovern or
ĠSen ate
Ġs ens
amp ion
ĠBe at
Ġd yn
Ġtw ice
Ġfrequ ently
Ġreport s
Ġ ut
ay er
ord in
ĠL ew
Ġle aves
stit ution
g u
Ġrem ark
ag n
ĠStud ios
Ġf aced
ĠG irl
ĠPol ish
Ġp aper
al y
il ly
iz es
led ge
ĠE astern
Ġwall s
Ġoper ated
Ġlab el
ĠC orn
ĠM D
Ġw ounded
Ġbill ion
Ġfollow s
Ġop in
ĠMe an
Ġsurround ing
az z
Ġg rew
ĠB art
ant ly
uf act
Ġplan et
ĠAnd rew
ĠR os
Ġs we
m in
re ct
Ġcont ained
ĠChrist mas
ĠAll ied
or ter
Ġcond ition
Ġman ufact
on ents
res p
ant ine
Ġdeg ree
ran ce
Ġb al
ge nd
Ġher self
isc o
ĠJ ud
ĠN ight
Ġaccom pan
Ġcol or
Ġh orses
Ġs le
Ġpass es
Ġ5 4
t ar
et y
Ġesc ape
Ġtyp ically
Ġun f
Ġre inf
m it
Ġf uel
Ġm aster
is ters
Ġsim ply
ĠWil son
Ġbro wn
ĠTay lor
ful ly
ut ation
Ġele ment
ĠIn st
Ã ¨
Ġord ers
Ġd raft
Ġl ives
Ġrail way
Ġd ang
ĠP en
Ġ198 6
Ġcas ual
am ing
Ġed itor
l a
ĠHe ad
Ġarm s
m ore
Ġserv ing
Ġc amer
u ous
Ġph il
Ġcons ecutive
Ġ9 5
Ġ9 7
Ġmom ent
ĠEliz abeth
Ġf an
Ġch ose
ĠH um
Ġnot hing
Ġauthor ity
ograp her
ĠJo e
ĠAlex ander
Ġcann ot
Ġvot e
ĠE ach
Ġ5 6
ric ult
Ġwork ers
ĠO f
Ġun known
Ġnew ly
Ġn ative
ĠM ike
Ġopp osed
ĠG i
uck y
Ġparticip ated
Ġemph as
is f
ĠJ ac
ĠL es
anc ing
Ġexper iment
Ġgrow ing
r ich
ĠW W
Ġ Î
ĠP ers
ag er
Ġatt rib
Ġp sych
Ġb ass
Ġwebs ite
e f
ĠD et
Ġl osing
Ġnewsp aper
ã Ĥ
Ġf air
yp e
Ġprodu cers
Ġadop ted
ĠL and
Ġadv anced
Ġbene f
il ies
Ġfilm ing
ĠEx p
Ġoff ensive
ĠCast le
Ġhe ard
Ã ¤
im ens
ĠF estival
t hen
Ġsever e
ĠS ound
ĠR et
Ġgu ard
Ġsp irit
ĠIs lands
ĠPenns ylvania
ĠW at
Ġopp osition
Ġs quadron
Ġfe ed
ĠWh at
Ġf irm
Ġsequ ence
Ġex tend
pt on
Ġact ors
ĠH y
Ġf iction
Ġre ar
Ġbas is
Ġcap acity
Ġcoun cil
Ġ rom
ors hip
ĠC ard
Ġwe ak
T C
Ġend s
Ġadv ant
Ġabandon ed
ĠG all
Ġ17 7
Ġpr in
ĠF urther
and a
ĠRec eption
z y
us es
Ġa st
Ġcomp ar
is ers
ur a
ĠIr ish
av en
ĠBl ue
Ġr ival
Ġev ac
Ġprom pt
i ated
Ġhon or
ab les
ĠS S
ĠT ech
Ġf lying
Ġent er
Ġele v
ĠF am
Ġk ick
ĠB ab
le ment
ĠSp ain
ĠHar ry
Ġco al
Ġbe y
Ġcreat ing
Ġde ploy
oc ated
Ġfilm ed
Ġlaun ch
ĠJ ersey
Ġhom es
B A
Ġpol l
Ġh appen
Ġregard ed
Ġey e
Ġnorm al
Ġinc ident
on c
ĠC at
Ġexp ansion
Ġindivid uals
Ġ7 6
Ġ17 8
Ġcritic ism
Ġagre ement
Ġbey ond
oun ger
Ġs ail
ĠU s
el d
Ġsp orts
Ġsp ect
Ġdel ay
ĠS quare
ĠC a
in er
Ġsp ring
Ġfail ure
ĠCo ast
ap ers
Ġch air
Ġl iber
ĠA re
F A
Ġstri ke
Ġdism iss
Ġfam ous
ĠB ul
Ġin te
Ġbo at
im a
ĠL ind
Ġv o
ĠU l
im et
ĠF e
Ġmeas ure
Ġposs ibly
Ġ193 9
ĠS and
Ġhistor ical
Ġb odies
Ġm ob
Ġprog ress
Ġneg ative
ĠC D
Ġcont act
ĠP ublic
Ġachie ved
ific ations
Ġro les
ĠBro ad
Ġkill ing
Ġbelie ve
Ġnar row
Ġsil ver
ĠE nd
ĠW ild
ĠProdu ction
in y
ic o
ĠE lect
ĠC y
Ġret ired
ĠM ul
ĠIs rael
i enced
Ġide as
Ġ ur
ĠV en
on ent
Ġtorped o
ĠL y
ĠIn stitute
Ġdr ive
Ġp et
Ġim ag
m osp
Ġperson nel
ian a
Ġt ask
Ġ6 1
Ġdise ase
Ġ198 5
Ġbrief ly
ĠDo ctor
ĠD ue
h ol
Ġar med
w ar
ĠAr thur
Ġd iam
Ġ196 8
Ġ6 6
ĠRev olution
Ġto wer
im al
Ġarran g
ed om
Ġeffect ive
Ġnecess ary
Ġroad s
k ins
ĠMean while
Ġkilomet res
Ġper man
ock s
Ġapp lic
ĠL iver
Ġgrant ed
Ġrepe ated
Ġinf antry
Ġt ree
ĠT y
ĠAs h
ĠC ub
ĠRepublic an
ĠS und
Ġbud get
Ġrece ive
Ġadminist ration
Ġcol umn
ĠM ir
Ġreject ed
Ġin h
k es
ĠP erson
Ġinter change
Ġtw elve
Ġt able
Ġgro ss
en ger
ĠAl bum
Ġimpro ved
Ġlead ership
ĠCl ark
Ġturn s
im ents
aval ry
Ġext ensive
Ġstra ight
ĠOh io
w orth
Ġland ing
Ġy ellow
Ġpar alle
our ney
av ed
Ġland s
Ġd ata
Ġcross ing
Ġse at
Ġmanag ement
Ġpl ants
Ġpurp ose
o ch
z il
Ġexp ress
Ġbro ken
ĠBo ard
Ġch oice
Ġm ile
Ġdescrib es
Ġexp anded
i Äĩ
Ġsuccessful ly
g ers
Ġdef in
ĠB ell
l usion
ol n
Ġint ellig
Ġsol o
s et
et ball
Ġf ranch
Ġt ru
ĠSecret ary
Ġf ought
om a
Ġdel iver
Ġexpl os
adel ph
Ġle arn
Ġ198 4
u ate
ĠE p
Ġorgan ized
Ġdid n
Ġc aught
Ġanim al
ĠPro t
ĠB urn
ĠS a
ĠH it
Ġ8 00
Ġch or
Ġro of
ĠPhil adelph
Ġex cl
Ġveh icles
Ġanc ient
ĠB ru
Ġsugg ests
er c
Ġcommission ed
ĠE ven
e v
Ġpl aces
h aps
ri f
ĠI S
st ream
Ġacqu ired
ĠM ov
Ġgl ob
Ġcomm ittee
Ġdram a
ĠN ever
Ġ5 7
ĠGeorg ia
Ġun su
ĠCamb ridge
ĠS her
Ġcom edy
Ġcre ation
Ġtyp es
Ġart icle
Ġg ives
ĠL ar
app y
m s
Ġsevent h
Ġf at
Ġ12 0
ĠPhiladelph ia
Ġw ave
Ġpre fer
Ġso ft
ak ers
z er
et ts
Ġhead quarters
a ith
i i
Ġnuc lear
ĠAl so
Ġauthor ities
Ġgen us
Ġcont ain
ĠComm on
ĠR el
Ġsec urity
rest ling
Ġdeterm ined
ĠS R
Ġ196 7
Ġro ll
Ġtra v
Ġb ott
Ġis lands
Ġcent uries
ĠAdd ition
u an
Ġbe aut
Ġcommon ly
r in
Ġmention ed
n s
ĠRuss ia
Ġrec ently
att le
Ġst reet
ot ed
Ġlook ing
ĠW ars
ip l
Ġcontrol led
Ġfav our
ĠM ah
um es
Ġ6 2
am in
Ġenc oura
ĠAm ong
ĠG il
ol es
Ġfam ilies
Ġbatt alion
Ġa im
ĠKore an
Ġhouse hold
ĠAr g
Ġac ad
Ġs and
art s
Ġfind s
out s
Ġwithd raw
Ġad vert
Ġdec re
Ġset s
is hes
ĠNin tend
ut ing
Ġsup por
Ġd rop
Ġstand ing
Ġill ust
ĠLiver pool
g n
Ġl a
v a
Ġun p
ĠH ay
ĠL inc
ĠNintend o
ĠJ enn
Ġref lect
ĠCh ap
Ġsing ing
Ġdec k
Ġf ish
Ġv en
ĠK a
Ġs ac
Ġd ial
ĠB ad
ĠPr ime
ĠEar l
it led
ĠColumb ia
Ġun ique
ĠAs ia
Ġhe ight
Ġprot ect
Ġentire ly
Ġtouch down
Ġcont aining
Ġcult ural
Ġdef ence
Ġfin ish
Ġt ry
w ater
Ġcontrib uted
Ġor chest
ĠSing ap
o h
Ġthem es
Ġm ist
ĠDe velopment
ĠL ieutenant
ĠJew ish
ĠLinc oln
ill ing
Ġprov ides
Ġy ounger
Ġ5 8
Ġflood ing
Ġ198 3
pp ing
ĠBra zil
Ġpurch ased
Ġ7 4
ro om
Ġdef ensive
Ġm is
ĠCh ild
Ġa wards
Ġat mosp
Ġcon vers
Ġarr ival
Ġtit les
Ġsched uled
in ity
ĠH un
ul ate
Ġpow ers
ĠCare y
ĠOff ice
ic ial
Ġres emb
Ġ196 9
ĠFranc isco
Ġth ing
ĠSingap ore
resp ond
Ġaccompan ied
ĠS ix
Ġun us
r ons
ĠPe ople
Ġintens ity
Ġ196 4
ĠR ol
Ġexped ition
Ġper fect
Ġexist ing
ag an
w all
ĠP ot
Ġqu ite
w ick
Ġadvant age
Ġw orth
Ġ7 2
Ġloc ations
ĠH on
at ures
Ġinter act
Ġcerem ony
Ġdedic ated
Ġperform ing
Ġrequ est
Ġb at
ac ted
ĠD ark
Ġphil os
Ġs quad
Ġext rem
Ġcomp uter
ĠB or
k er
ĠT am
Ġ191 4
ĠT urn
ĠL is
Ġoccup ied
Ġst ore
ĠK ey
ĠH MS
ĠDis ney
Ġt y
l aim
Ġf resh
Ġwh y
Ġâ Ī
d y
Ġm ounted
Ġcar ry
Ġ191 8
S tation
il ing
Ġbo ats
Ġm outh
ash ion
ĠOr der
Ġ197 1
ĠPlay Station
t a
Ġ198 2
Ġn ob
Ġcurrent ly
Ġf ix
us c
ĠK el
y les
ĠM ot
Ġclos ely
ĠD ie
r ations
Ġcons ists
ĠB alt
f ort
Ġt im
ĠAnd erson
Ġt ail
Ġ197 2
Ġ196 6
ĠCon ference
Ġ197 9
ĠLew is
Ġ5 9
ĠSte ve
man n
Ġs ession
Ġm ic
Ġl ic
ĠBro ok
ĠMill er
pp er
Ġc ricket
hen s
Ġindust rial
av a
ĠB as
Ġsim ple
ĠRad io
Ġvar i
Ġe gg
Ġel imin
Ġste am
Ġc old
Ġfac ilities
ĠBy z
Ġsupport ing
m outh
Ġprot ection
ĠOn ce
Ġdra wn
Ġp iano
il ton
ĠS u
Ġro w
ĠGr ant
Ġbel ong
ĠOlymp ic
Ġr ise
ĠCon n
Ġr ated
Ġdef ined
Ġsub mar
w are
ĠP u
Ġtra ins
Ġse lection
ĠSh ak
ĠEm peror
Ġpro s
ĠB rian
Ġreg ions
Ġ196 5
Ġstruct ures
aw a
Ġa id
Ġprot ected
ĠBar b
ot ic
Ġh arm
Ġcall s
i ro
Ġfoc used
Ġth row
Ġ #
Ġh air
ĠRail way
g est
Ġmot ion
Ġrece iving
Ġeng aged
Ġshoot ing
Ġcom ic
ver se
ĠP ress
b a
Ġl abor
ĠN HL
Ġad ap
Ġopportun ity
Ġl ap
Ġ197 5
ing ly
ĠG ib
Ġcor respond
Ġ9 9
ĠM u
ir ation
ĠG ulf
Ġanal ysis
Ġstreng then
Ġsh ark
Ġmot or
u a
os a
Ġsp ort
ĠSum mer
Ġnot able
uz z
Ġcitiz ens
Ġobs erv
Ġexper ienced
Ġmount ain
Ġcon ference
ĠJ r
Ġhold ing
ĠW ater
se y
ĠWal ter
ĠHolly wood
ĠA v
ul ts
Ġsout heast
Ã ¸
Ġey es
ĠGerman s
ĠL ab
Ġprov iding
ĠIn c
Ġres ident
ĠOn ly
in th
ol id
ing er
ĠH an
Ġrapid ly
ĠAt t
Ġvis ual
ĠSer b
Ġcasual ties
Ġview ed
Ġh ired
ad ing
Ġ197 4
Ġb ranch
Ġm ut
F L
Ġmer ch
Ġchart s
if ically
un ior
ĠDav is
op her
Ġtrans form
Ġal le
Ġrecogn ized
Ġ197 3
ĠSpec ial
Ġv ac
he im
Ġro b
Ġ6 3
ĠDemocr atic
ĠU N
Ġ7 7
Ġsit es
Ġschol ars
Ġvol ume
il er
ĠRe view
bur gh
Ġste el
Ġreact ion
Ġparalle l
ess ed
Ġ7 3
Ġg ain
ĠR ome
Ġconc er
ĠK ir
ĠBet ween
ĠD own
Ġsh ared
Ġpro te
Ġte ach
Ġh yp
ĠF all
Ġed ge
Ġc art
Ġpublic ation
ĠJe an
Ġ197 6
Ġmod er
Ġtemper ature
Ġdig ital
Ġeconom y
Ġdevelop ing
ro ll
ĠT en
Ġinters ection
Ġhead s
ĠB ank
Ġc ool
ĠPro v
ĠN az
st anding
b ox
ĠN ap
f riend
Ġsymb ol
Ġsecond ary
z en
Ġappro ved
y er
ĠG ord
ĠLad y
Ġloss es
Ġch ance
ĠPr inc
al i
Ġv on
Ã¡ n
Ġhyd ro
Ġr ac
om ew
it ors
ĠM as
ĠO b
olog ist
Ġw itness
Ġprep ared
Ġcont est
Ġen l
Ġsubst ant
onc Ã©
Ġbelie f
ĠD aily
if ul
ren ce
r ant
Ġsignificant ly
Ġmy th
ĠW omen
ograph ic
Ġlet ters
ĠPhil ipp
ĠMus l
Ġs ort
Ġband s
ĠSy d
ond er
Ġdom estic
ach us
Ġc ard
ast y
Ġ25 0
Ġs ave
Ġinst ruct
Ġdes cend
Ġunsu ccess
Ġkn ew
Ġsouth west
ĠComm and
Ġ6 7
Ġfranch ise
Ġt ank
Ġliter ature
un te
ry st
Ġgo es
Ġrough ly
er al
ak a
b reak
ĠM ain
Ġpain ting
Ġsem i
ĠBey oncÃ©
Ġact ress
Ġass ault
Ġtechn ology
or a
ĠColon el
en c
Ġ urban
thel ess
Ġp itch
Ġad vent
ran ge
Ġany thing
Ġproject s
Ġc ab
Ġc ore
ĠInd ust
ĠN ick
Ġbrother s
Ġc ars
ĠB ern
ĠP oint
ĠPl an
Ġad ult
Ġresist ance
Ġl b
Ġsh ape
Ġex act
Ġgame play
ell a
i ents
Ġstory line
ĠSup reme
Ġemploy ed
ĠKent ucky
ĠI V
rop ri
ad s
im inal
Ġinj ured
ul pt
ĠV ar
Ġre asons
Ġrul es
ĠWh it
ĠInd epend
Ġd aily
Ġag ent
Ġ194 6
ĠSt ation
ĠSp ring
Ġ ign
Ġsh all
Ġ198 1
ĠF air
Ġwat ched
Ġ8 2
Ġ9 6
Ġpopular ity
ir a
Ġf it
ĠB all
Ġis ol
Ġ6 8
ag ement
ony m
Ġcomp osition
Ġper haps
Ġadd ing
Ġdecl ined
at i
Ġren amed
ĠC ur
Ġget ting
ĠâĪ Ĵ
ĠR oss
Ġenjoy ed
Ġcomp ris
Ġopin ion
ĠThe at
o z
Ġcal c
ĠNor way
Ġpo em
om ic
Ġn or
Ġsh aped
Ġrep utation
am m
Ġunder t
Ġconn ected
ĠB ase
Ġ191 7
ink ing
Ġconver ted
Ġl ov
ĠM os
Ġest ate
Ġview s
Ġmus eum
ĠMass achus
b ound
Ġd ry
Ġd rew
Ġre nd
Ġst ages
ĠOlymp ics
ĠP rem
o ir
ĠI mp
Ġret ire
ce ived
Ġregard ing
ĠGold en
ĠD ream
ĠMassachus etts
g al
os l
Ġdist ingu
ĠW alk
if orm
Ġs un
Ġag ricult
Ġhead ed
Ġallow s
re ts
v est
Ġb ed
Ġn ick
Ġ8 7
h an
ĠS el
Ġaltern ative
Ġj ourney
ul es
Ġmiss ing
ig g
ĠV i
Ġdep th
Ġc ited
Ġturn ing
ĠAb b
ĠS us
Ġincreasing ly
ath an
at o
e per
k o
ĠL et
Ġappro ached
os is
Ġplan ning
ĠR on
Ġ16 0
Ġrespond ed
ĠAir port
Ġst adium
ĠH art
Ġknow ledge
Ġ194 8
Ġover l
Ġex erc
ild ing
em an
Ġwe alth
Ġeas ily
Ġ7 00
Ġf ashion
ol t
Ġesc ort
Ġconstit ution
Ġcol lected
Ġequ al
ĠAb out
Ġsuc ceeded
Ġreb u
ps ons
Ġintrodu ction
ĠK en
Ġc ells
un icip
Ġsust ained
m od
Ġtri p
Ġexist ence
ign ment
ĠB al
Ġfl u
Ġp ul
Ġocc as
ĠIm perial
Ġsaf ety
Ġaut h
Ġlear ned
ĠSim psons
Ġt all
ĠR un
Ġ6 9
w ise
Ġoper ating
ĠIn it
Ġmod els
Ġcol le
Ġ197 8
h i
Ġcar rying
ret t
Ġpromot ion
m itted
Ġy outh
ĠVietn am
Ġ7 8
ur ation
Ġshow ing
Ġbase ball
Ġlim it
eng ers
ĠMc G
Ġbur ied
ĠSong s
e g
ig er
Ġex change
on ia
Ġ9 1
Ġweaken ed
c ome
le ton
Ġpain t
Ġcred ited
ĠA D
Ġse ems
ĠL oc
Ġ191 5
Ġhum ans
ĠC ape
Ġimpro ve
Ġdep end
Ġim pl
st ate
Ġdesign s
Ġarran ged
Ġfre eway
ĠJ ay
Ġjoin t
ĠShort ly
Ġa thlet
Ġland fall
Ġr hy
Ġprodu cing
Ġshe l
Ġearl iest
ĠSyd ney
Ġpro ceed
ĠOtt oman
Ġv an
Ġfl at
in ary
el er
ol i
ist an
Ġnot e
Ġsc ulpt
Ġlast ed
Ġsettle ment
ac ts
Ġret ained
ĠWh o
ĠP ict
Ġ197 7
Ġt on
ĠN aval
ĠMo ore
ĠPol and
Ġac res
Ġdesc ription
p ut
Ġ9 4
ĠR oy
ĠR em
Ġb rand
iss ance
ĠMary land
A R
ĠC ra
re ll
iv ered
Ä ģ
Ġres erve
ĠM TV
ĠSt ew
ival ent
b ell
Ġlaw s
Ġappoin t
Ġassist ant
Ġrepl ace
Ġcons c
our ces
Ġpat rol
Ġinst all
Ġ8 1
Ġgen re
ins ula
Ġplay off
Ġprogram s
ad er
Ġv irt
Ġc atch
Ġcoast al
Ġviol ence
Ġ9 8
Ġent rance
Ġstat ement
Ġh its
Ġ196 3
ĠJ es
Ġappl ied
ĠAr ts
Ġsyn t
Ġcon sequ
Ġne ut
ie ge
Ġtr ust
Ġscient ific
ot hes
Ġt ick
ĠP ass
av ig
m ath
p et
ĠR id
Ġexcl us
t ical
ĠRh odes
Ġbatter y
Ġdel ivered
ĠG reg
Ġ191 6
Ġs ections
ĠF ire
Ġun s
Ġcandid ate
Ġindic ated
Ġstop ped
t ime
Ġtown s
Ġgrad ually
Ġt act
Ġit ems
iz ations
Ġpolit ics
l an
Ġb an
ĠBow l
ĠE du
ĠA ri
le e
e ke
o ard
Ġbas k
Ġsuppl ies
Ġdistrib ution
Ġf illed
ĠI G
Ġdet ails
Ġindepend ence
ĠConf eder
el ess
A T
el a
Ġse lect
m un
Ġ7 1
Ġst ream
Ġcomb ination
ĠJ an
Ġway s
Ġem p
Å ¡
us hing
ĠMul der
Ġc inem
ĠB on
Ġgl ass
ĠGord on
Ġeng ines
Ġpart ies
Ġcamer a
re ets
ĠSt adium
Ġappe al
ph oon
ĠB and
end er
Ġprison ers
Å Ĥ
Ġ191 9
Ġ196 2
em ies
Ġ8 9
Ġreg ister
Ġcamp us
ĠA C
ĠW ell
Ġsec ure
Ġent itled
Ġextrem ely
ivers ary
Ġact s
Ġw ars
Ġm ig
Ġreg iment
re c
rop ol
Ġfind ing
ĠTheat re
ad or
ĠR a
Ġeven ing
Ġinvestig ation
Ġt al
Ġon line
ĠSt aff
Ġdec ade
por ation
Ġwin ner
ĠPro f
ino is
ĠUn ivers
Ġadap ted
Ġ193 8
iqu es
ĠC op
ĠK im
Ġb ought
Ġar c
ac ter
Ġ8 8
Ġsurv ived
Ġkn ots
Ġs omew
Ġthreat ened
Ġdeath s
Ġrul ed
Ġmess age
Ġwrit es
as hed
Ġro utes
ĠAn th
i at
ĠB ir
Ġcons um
Ġstud ied
Ġrel ief
Ġrelig ion
j a
Ġadd ress
ĠJust ice
ĠV ill
Ġpropos al
Ġf ear
Ġdown load
ĠInst ead
ĠN ic
Ġt anks
an o
Ġvot ed
Ġredu ce
ĠP o
m et
Ġspec ifically
igh ters
Ġc rown
Ġm ales
ie val
Ġph ase
ĠM emorial
Ġrev olution
B S
Ġsp ons
bour ne
Ġf ict
Ġking dom
ĠA ge
Ġrec alled
Ġportray ed
Ġe c
Ġcontrovers y
B N
Ġdut y
Ġimp lement
ĠC irc
ct ions
ĠH ere
h at
Ġemer g
Ġs oul
ĠA st
ad ow
ap es
Ġb le
Ġcaus es
Ġevery thing
Ġbott om
Ġst ret
Ġ13 0
Ġcap able
erv ative
cher s
Ġconv in
Ġ17 5
ic ian
Ġrefer ences
Ġ195 6
Ġs ell
ĠK ong
Ġimport ance
a ug
Ġag o
Ġbreed ing
Ġe t
ĠT ony
ĠCol l
Ġoff ers
Ġte acher
rid ges
ĠMc K
Ġcross ed
Ġarrest ed
ĠDirect or
ĠSing les
Ġ7 9
Ġmet ers
Ġent ry
ent ially
Ġsuff icient
ĠN el
b ro
ĠP ower
ĠU r
ĠI d
sen al
Ġcl imb
ĠO d
ĠM oon
Ġadm itted
Ġintern al
Ġoper a
ar p
ĠO k
ĠAd ams
Ġcorn er
Ġnomin ation
Ġm ort
Ġown er
u ro
ĠDou gl
b ar
ĠJ ane
ĠAl an
Ġequip ped
Ġinst alled
Ġproduct s
Ġover se
Ġconcern s
Ġcop y
Ġb or
Ġ193 6
ĠJ ord
Ġstart s
ruct ure
ĠIG N
ĠAl f
ĠBe ach
Ġconv oy
ĠCrit ical
Ġpre ced
w ich
and y
Ġcon qu
Ġaut om
ĠHam ilton
rane an
Ġinv ited
Ġs now
h r
Ġt ell
Ġup grad
ak i
ĠEng ine
Ġon es
Ġun l
ans as
Ġprincip al
Ġsh ut
Ġcr ime
ĠSim on
ĠU TC
Ġinter ested
Ġret reat
Ġremain der
Ġrecomm ended
ĠIn t
ĠG ram
ĠMar ia
ĠPl ot
esp read
Ġal t
Ġac id
Ġst ock
ĠY our
Ġact ual
ĠAd am
Ġf ly
Ġ9 2
c a
Ġv ent
Ġ9 3
ĠV II
Ġmed al
Ġsol id
ĠTr ack
Ġchar ged
Ġap art
Ġdo or
Ġconsist ing
ĠFore st
il ation
ĠDe ath
Ġfund s
Ġ196 1
osaur us
i y
m b
v is
ĠInd ones
Ġpromot e
Ġpr ice
Ġmil it
Ġobject s
Ġ8 4
ĠB os
Ġconsider able
ĠC art
Ġg all
ĠV ideo
Ġcompos er
Ġd ates
ak ed
Ġfem ales
ĠN BA
ĠF A
Ġp age
ĠF ound
ĠPro g
ĠWW E
er ted
ĠG en
Ġground s
ĠN ether
Ġ195 3
h us
Ġpo ly
ĠTod ay
Ġb low
ill er
Ġdut ies
re te
Ġext ension
Ġtyp ical
Ġcon g
ĠMil itary
ĠTrans port
ĠHit ler
ĠG un
Ġcor rect
Ġr ural
Ġsome one
ck s
ĠKenn edy
B I
Ġe ighth
Ġev olution
ĠSund ay
Ġim ages
Ġdec ades
ĠPro ject
ĠHow ard
ĠMar c
Ġso le
Ġz one
Ġpen al
v ements
Ġdr iving
ĠIndian a
Ġsp in
Ġhot el
k ing
os ite
ĠP it
Ġident ity
ĠT a
Ġl ane
Ġread ing
AA F
Ġchallen ge
ĠNor we
het ic
Ġocc urs
ĠH ou
ad d
Ġrem ix
Ġman ner
ĠLe on
Ġsub s
Ġperman ent
Ġf rag
ĠSc ully
Ġb rigade
Ġh am
ĠF ive
Ġasp ects
Ġd ated
Ġsk in
ĠT ar
ĠB ry
Ġ194 7
Ġto w
Ġa er
Ġvol can
ĠK at
ĠC ult
Ġnot ing
Ġslow ly
Ġ195 8
reg on
Ġcol our
Ġarm or
ĠB rist
Ġv ir
Ġpost ed
ĠPort ug
Ġrest aur
ĠG ill
ub b
e z
Ġvess els
ens us
ĠMount ain
a fter
ion e
ĠSc ient
Ġspe ak
ĠTur k
Ġ191 0
ĠP ear
Ġ11 0
Ġcle an
ile y
Ġ8 6
Ġsuppor ters
aw are
ĠB a
iv als
ĠD rag
ck now
Ġinvol ving
Ġent ering
Ġdescrib ing
Ġ195 7
ĠA k
Ġb ra
ĠAss embly
Ġen emies
ĠRes earch
ĠR ose
ĠSc ience
vel and
Ġdep artment
n ic
ĠSp ace
Ġequ ivalent
Ġob tained
Ġ193 7
ĠCon stitution
Ġdeb ate
Ġm emorial
Ġd ress
Ġacc ur
Ġclass es
ĠRy an
Ġsett led
orn ey
Ġold est
ĠH ug
ĠD isc
Ġd in
ris is
Ġpurch ase
Ġwid espread
ĠMag azine
f l
Ġsong writ
Ġbas ic
Ġte le
ĠRol ling
Ġdec line
ĠArg ent
ĠI ra
ag ues
Ġpar liament
ĠP ier
ĠO regon
Ġatt ached
Ġinc ome
Ġdec or
ert o
Ġf aith
Ġconcern ed
ĠL enn
Ġdepart ure
he astern
Ġform al
Ġf olk
Ġconn ection
ĠCle veland
ĠIll inois
Ġp up
Ġacc used
ĠThrough out
c ation
Ġrecogn ition
ĠDougl as
oph y
Ġcert ified
Ġinte g
he red
Ġn est
Ġde leg
Ġh a
Ġ <
ĠN ow
Ġo uter
Ġdist urb
r ates
Ġsequ el
Ġder ived
ĠWeek ly
ĠRe le
Ġcomm itted
ic it
ĠS av
i ot
Ġm ode
are t
ĠSt and
Ġa cknow
Ġass umed
Ġ195 9
ĠAnd y
o oth
Ġsw im
Ġhost ed
Ġwear ing
ĠâĢ Ŀ
ĠFam ily
ĠStan ley
ĠJord an
w estern
Ġw ed
ĠFred er
Ġseg ment
Ġf oss
Ġreturn s
w an
Ġt orn
Ġh ip
Ġchar ges
ĠF eder
Ġsur vey
eke nd
Ġch ampion
Ġacc laim
Ġtem ple
Ġh ang
ĠMed iter
ĠTh ird
Ġliter ary
ĠAr senal
Ġval ley
ĠMed ia
ĠRog er
ĠD al
Ġfl o
Ġden ied
ĠL ow
Ġtermin us
Ġf ine
Ġpop ulations
Ġtrans ition
ĠT reat
ĠT enn
ĠPhil ip
ĠKe vin
Ġs essions
ĠRec ording
agon ist
ĠMediter ranean
ĠBeat les
Ġreg ional
ĠBru ce
Ġcan c
Ġcirc um
Ġthous ands
Ġsupp osed
Ġ195 5
ĠE s
Ġ195 4
ĠâĢ ľ
Ġwar m
ĠIS BN
ĠNorwe gian
ĠBrist ol
Ġdem and
Ġintellig ence
Ġdown town
Ġan s
Ġsh ots
iv a
Ġcomm it
Ġstrong ly
R A
ĠA z
ĠR ain
Ġwick ets
ĠD ig
ud den
hed ral
Ġs ailed
ĠD er
ĠF ederal
Ġpass engers
Ġcirc ulation
he me
em ed
ĠB ush
Ġposs ibility
Ġgener ation
Ġh ill
Ġfre edom
or gan
Ġcl oud
Ġfict ional
ac hel
Ġthir ty
ĠH o
Ġanim ated
Ġh ope
v ens
ĠCh annel
ra ge
Ġrepl acement
I A
Ġcommand ed
e ing
ĠMexic an
Ġr ich
Ġbeg un
Ġassist ance
it o
Ġbehav ior
ĠB ol
Ġmin ister
Ġmiss ions
ĠKore a
Ġdest ruction
ĠW eb
Ġf ruit
Ġcr ash
Ġmiss ed
Ġcr iminal
atin um
b orne
m es
am i
ĠÃ Ĺ
or ced
ĠP ur
ĠR aj
Ġmov es
ĠR ow
Ġexcept ion
Ġt ied
Ġvol unte
l ig
ĠWith in
ch ar
ĠCol or
ĠC as
ĠCon c
Ġcost s
Ġbring ing
ĠM aster
up t
Ġint ention
Ġhigh light
Ġfeel ing
els h
ĠN ar
Ġalle ged
Ġfin ishing
ĠB ah
ĠE ric
ism s
ĠAddition ally
Ġrecover ed
Ġunus ual
Ġspe aking
Ġdem ol
ĠF ame
Ġsh op
ĠS ab
or al
le ts
Ġserv es
Ġproper ties
Ġstay ed
Ġincorpor ated
Ġstr ateg
ont o
Ġattrib uted
Ġ8 3
Ġbre aking
az a
Ġemer ged
Ġs ons
Ġinter cept
Ġopp osite
ĠLis a
Ġd ipl
Ġ195 2
em eter
ens es
ĠPh ill
Ġdr iven
Ġtheat re
ri ers
ĠMor ris
r ating
ĠMor gan
Ġatmosp here
ĠI ron
Ġchor us
a ire
ĠRob inson
oth ing
Ġclass ic
Ġoccasion ally
ĠNorm an
ĠPri or
ĠK r
Ġread y
ole c
ĠE le
Ġestablish ment
Ġc avalry
Ġsp ok
um in
ĠE ver
Ġregular ly
Ġcour ts
Ġeffect ively
Ġdiss ip
Ġsurv iving
Ġv ary
ĠTem ple
Ġd ream
Ġ193 3
th m
Ġd ivers
Ġrespons ibility
Ġmethod s
Ġpre y
ĠTe levision
ĠSim ilar
ĠHaw ai
ĠS ky
og en
Ġsound s
ĠA round
Ġsh ore
Ġcomplet ion
p ective
ĠUn like
Ġmaterial s
we ight
Ġsup erv
Ġ17 6
Ġprov ince
ĠConst ruction
d on
ĠC E
ut y
Ġclass ified
Ġhe at
Ġatt racted
Ġwar ning
Ġfield s
w en
osl av
so le
Ġdiv isions
Ġaccom mod
r im
ĠG h
ĠC ab
Ġqu ant
Ġent ertain
Ġpers u
ĠFranc is
ĠNel son
ec e
b an
Ġtechn ical
Ġglob al
ĠN ich
Ġinterp ret
n old
ĠF inn
ĠPat rick
Ġm o
Ġdiffer ences
in ton
Ġpass age
A C
ĠL anc
ĠAn ton
ĠF ord
ab led
Ġk id
Ġ193 5
Ġcru iser
Ġb rain
ick s
ĠPrem ier
Ġn one
Ġne ither
ĠSwed en
2 0
ĠB udd
ĠD E
Ġab oard
ĠT echn
Ġst ood
ip e
Ġs am
ĠM it
Ġbattles hips
Ġreinf orce
oy d
Ġ194 9
Ġclub s
Ġbask etball
Ġassoci ation
Ġ195 1
ĠW elsh
Ġroom s
n ce
Ġele ven
Ġanc est
Ġrat ings
n ings
ĠN ations
ĠH ell
Ġmusic ians
id den
Ġh al
Ġdes ire
Ġsh if
Ġmed ic
Ġs qu
Ġro se
Ġout break
Ġsepar ated
Ġclass ification
Ġcl imate
Ġseem ed
om ot
ĠAn ne
Ġvot es
te enth
ag le
Ġpred ecess
ĠTor onto
Ġrequ ested
Ã³ n
Ġveh icle
Ġpict ure
Ġhistor ians
ĠMatt hew
Ġm ent
Ġreal ity
Ġmem ory
ĠD og
Ġmov ements
ĠAll en
ĠProf ess
Ġchem ical
ic i
ĠMar g
j i
ĠByz antine
ew here
Ġm ap
Ġhop ed
ĠMar ine
ĠNether lands
ĠCh ron
ĠBel g
Ġ ille
re ck
ab il
ĠO pen
Ġra ise
Ġdifficult y
ĠJ ournal
ĠS n
og y
ĠE very
Ġrest ored
ĠP ow
ĠS ports
b urn
Ġexp ect
Ġprogram me
ĠW he
ind er
Ġv ide
Ġcommun ities
ĠB ang
ĠUS S
ig e
Ġrem ember
Ġra id
Ġf er
Ġte en
ĠIra q
Ġfl ank
ĠJew s
Ġf al
Ġpremi ere
Ġdelay ed
Ġdiscover y
Ġp ure
ĠDe an
ĠJac ob
Ġrel ative
ĠAg ain
Ġann iversary
Ġinsp iration
Ġgreat ly
Ġinj uries
h ar
Ġg al
Ġsat isf
ĠDes ign
Ġother wise
ĠB ishop
Ġ19 00
Ġneigh bor
ĠS ax
Ġacc ounts
Ġfund ing
ĠUl t
Ġdep ict
h ire
ĠD omin
il ers
Ġpra ise
Ġsurround ed
Ġstr ate
i ate
Ġrec ru
Ġd ens
ĠN C
Ġmass ive
Ġpenal ty
Ġsp oke
Ġpart ner
Ġc rop
Ġneed s
Ġclaim ing
Ġtri es
Ġd ie
ĠW right
Ġsu it
Ġass emb
Ġbatt ing
Ġweap on
Ġcross es
Ġphot ograph
Ġstrate gy
Ġc ra
Ġl at
Ġcons p
Ġform ing
an th
ĠD or
Ġw rong
ĠSt ra
Ġast ron
ĠR ick
Ġle gend
Ġinvol vement
Ġfl ed
Ġaccom pl
Ġstand s
ĠGl ob
Ġdocument ary
g ets
ĠAr men
Ġwor st
ĠCroat ian
re al
a ired
ĠD ick
Ġarchitect ure
Ġrem n
ĠH op
ĠO ak
ĠD a
Ġtem porary
Ġas h
ub le
Ġbomb ard
Ġchair man
ĠHe art
Ġdeterm ine
ĠJ am
Ġpl ane
Ġen f
ĠThom pson
go ing
Ġdismiss ed
ut her
ĠL ast
Ġgirl s
ĠRuss ell
Ġro t
form ula
ĠIs lam
Ġin ner
Ġhe ar
Ġwe ekend
Ġs ale
ĠT rib
ĠHe nd
Ġconvin ced
r um
ĠCent re
Ġens ure
Ġc ategory
Ġres erv
Ġc ul
Ġ0 6
Ġadapt ation
ĠN FL
ĠMar s
Ġres ources
ond s
Ġs ight
Ġcolon ial
Ġsomew hat
Ġl ibrary
Ġinter ests
ĠH oly
ly n
ĠMod ern
Ġst reets
ĠF ree
Ġimmedi ate
w ing
Ġsc heme
ĠCar ter
ĠWin ter
ĠPu erto
b ody
Ġstar red
ĠF ront
Ġmed ieval
Ġcomm emor
ĠCo oper
ag re
Ġr ay
Ġfall ing
ĠKel ly
ost er
Ġabs or
Ġcar bon
Ġpresident ial
itz er
Ġ ic
we alth
ĠK er
Ġthr one
ĠSp e
p o
Ġacad emic
Ġsurv iv
Ġapp ropri
Ġclass ical
ĠD ra
ĠAl ong
Ġtechn iques
Ġr aces
Ġs ed
Ġf itted
Ġme ets
Ġegg s
Ġf ighter
ay a
Ġcon vent
Ġo ri
Ã ±
ic ide
Ġl oyal
Ġn inth
ĠBro ther
ĠHung arian
ĠR ang
ĠN etwork
n ight
Ġb right
ĠG ard
ĠN iel
Ġad ults
ĠP ak
ĠB ou
Ġsuper ior
Ġsubmar ine
ĠN ob
Ġpass enger
Ġreview er
r ine
Ġinter ior
Ġl ake
Ġattack ing
Ġabs ence
Ġsee ing
es ter
Ġ191 3
Ġren ew
ĠTh us
Ġfavor ite
ĠT ok
ĠW y
Ġair port
ĠL abor
ĠPark er
iv an
ĠE st
Ġel se
ĠG ri
Ġengine er
Ġpremi ered
b ec
Ġconv ection
Ġsynt hes
Ġal ien
os ure
ars h
Ġde emed
ĠBat man
Ġvis ible
á »
Ġd ub
Ġconc lusion
Ġland ed
ron ze
ĠHar ris
Ġd ating
ĠL ate
ĠA I
Ġappear ing
Ġ192 7
Ġpart n
ĠP A
Ġcharacter istics
Ġ192 6
Ġr um
ac ent
om p
Ġoper ate
Ġafter wards
Ġlead s
Ġrom antic
Ġl ies
ĠB i
Ġelect ions
us ing
Ġfac ility
Ġm unicip
ĠL ibrary
Ġsuff ering
Ġencoura ged
b ook
Ġ x
Ġcol ony
Ġtemper atures
e or
ch ang
Ġmod ified
Ġ193 4
Ġ192 1
ĠMur ray
Ġretire ment
an ia
ĠD NA
Ġbu y
Ġdo ct
Ġcred it
Ġevery one
ĠT s
Ġpain ted
o en
Ġhold s
Ġcontrovers ial
as ure
Ġs an
oss ible
Ġlegisl ation
ĠEdu cation
a ver
ĠKn ight
Ġchall eng
ĠCommon wealth
Ġattempt ing
Ġâ Ĥ
ur ches
Ġbelie ves
ro it
ust er
Ġarch ae
Ġg one
ĠBer lin
Ġ0 8
ĠPol ice
Ġ9 00
Ġw ings
Ġp ound
ĠComm ander
ĠHou ston
Ġo d
Ġc ode
Ġcontin uing
Ġdistrib uted
Ġdomin ated
Ġresc ue
ĠB rand
ĠR AAF
Ġbattles hip
Ġsec ured
ix on
Ġdep icted
aw s
ĠPal ace
ĠSant a
Ġjud ge
t ic
Ġlook ed
Ġauth ors
Ġany one
ĠF I
ap se
ĠSt ory
ĠU t
Ġ191 2
Ġstand ards
sc ape
enc ies
el ine
Ġimm ig
ĠAd vent
Ġ Å
Ġlong est
Ġcan cer
Ġgr ass
Ġunsuccess ful
Ġw el
Ġmon arch
com ing
ac he
ĠH ospital
Ġrail road
Ġhabit at
Ġw ins
Ġn eck
Ġgraph ics
ĠY ug
Ġob tain
ĠC ook
ĠM ort
Ġtra ined
ĠL i
Ġun ion
Ġbig gest
emeter y
ĠSwed ish
Ġs udden
ĠG et
Ġarrang ement
ĠO t
ĠInd ians
l i
ĠRober ts
Ġmeas ures
Ġj ump
ĠO bs
ult ane
Ġ193 2
ĠSim pson
inal s
Ġcar rier
ĠY an
ĠE y
ask a
Ġacknow led
Ġdeploy ed
ow a
Ġnick n
e enth
ĠSil ver
op es
Ġbel t
ĠL yn
om ing
ĠCor poration
Ġinform ed
Ġrepresent ing
tern al
Ġs ter
ĠSoc ial
Ġrele ases
Ġachie ve
ch ing
ĠWar ner
t ure
hes s
Ġ0 9
Ġse es
Ġclos er
Ġgar rison
Ġgener ated
Ġformer ly
Ġal leg
ĠMer c
ten ance
ĠJ ason
un a
ĠN BC
Ġhistor ic
f are
Ġb ab
ĠYug oslav
Ġcon vention
Ġst yles
Ġtri als
ĠAnth ony
ĠC ru
Ġgr ade
Ġemerg ency
Ġg ets
Ġmoder ate
el le
Ġv eter
Ġinflu ential
Ġb ats
ol ph
ĠR AF
ag u
Ġf estival
Ġsuccess or
Ġs iege
ĠH in
Ġcy cle
Ġass ass
Ġquest ions
Ġm olec
ot ype
ĠDet roit
Ġr u
Ġemot ional
ĠCroat ia
Ġown ers
hem at
ĠT al
ut s
Ġ192 9
ĠB ure
ĠP C
Ġinflu ences
Ġnov els
Ġnar rative
Ġrid ge
Ġwood en
ar ia
Ġth in
Ġst ead
Ġdef ended
Ġex cess
ĠAut hor
Ġconst ant
Ġ191 1
Ġapparent ly
ĠG aga
Ġve get
Ġvict ims
Ġjournal ist
f ire
Ġexper iences
Ġdiscuss ed
m ate
ain ts
ĠCh amber
Ġ14 0
Ġchild hood
Ġdet ail
Ġexec uted
ĠGil bert
Ġdipl om
n oon
Ġe at
Ġal co
Ġleg s
Ġinstr uments
Ġpre gn
ĠR ap
ark ed
Ġconc ur
Ġoffic es
Ġtre ated
Ġenvironment al
y ard
ust ed
ĠPrinc ess
Ġg iant
Ġdep os
Ġm ine
il a
ĠAs ian
Ġent ers
ram s
ĠSp ears
Ġ193 1
im ore
ĠD esc
Ġ192 2
Ġcoin s
ach ment
ob i
ĠMel bourne
ann y
3 0
Ġfact ors
Ġbe ar
ĠV ice
ĠHe avy
ĠCl inton
Ġhun ting
ĠJes us
i ens
ĠS omers
Ġhundred s
D S
ili ar
ĠEv ans
Ġch annel
ast e
ĠUS A
ĠNiel sen
Ġo cean
ĠP ope
Ġun iform
Ġres igned
al o
Ġg ay
ĠAtl ant
Ġr ide
Ġreve als
ĠOr gan
ĠGu y
te xt
Ġen h
ĠX box
Ġn avig
Ġsk ills
ĠNever theless
Ġprevent ed
ĠM un
ĠB ed
Ġpoin ted
Ġcl im
re es
Ġb on
ĠW ing
Ġwatch ing
Ġp ushed
Ġsp end
ro t
Ġ0 5
ĠC ategory
E S
us ic
Ġchap ter
or ous
Ġdrum s
Ġfac ing
ĠStew art
Ġint ent
Ġopp onents
Ġhappen ed
Ġprefer red
Ġfle w
ĠMusl im
ĠRe al
Ġfoot age
Ġf il
ĠOrig in
l ie
Ġp ull
Ġdiffer ence
Ġreported ly
ĠBul gar
Ġform at
Ġform ally
Ġf iring
ic ians
ĠT ower
ĠL im
Ġpoet ry
Ġaccom p
Ġche ck
Ġinh abit
Ġint ense
Ġlangu ages
ĠTurk ish
Ġthere after
ot o
Ġloc omot
Ġhand ed
Ġthous and
ĠExp ress
it ter
og ether
Ġres ign
Ġrelationship s
ĠSar ah
Ġch ain
ĠCar ib
t ty
ĠB enn
Ġnot ably
ĠAust ria
ĠSam uel
s ki
ĠR ey
ĠQue ens
Ġdev ice
Ġvisit ors
Ġv ision
ĠLenn on
Ġg ather
Ġexp osed
Ġanim ation
ĠColor ado
Ġex isted
Ġsurre nder
Ġemploy ees
Ġb es
ĠA ud
olog ists
ĠGre ece
on ies
Ġhe aring
id i
ĠR aw
Ġdepart ed
Ġaccomp any
ĠB ird
ĠAlbum s
Ġparticip ate
ro c
Ġlink ed
Ġ17 0
ĠBalt imore
ĠH ans
m ad
o is
h att
be an
d s
Ġreb ell
Ġdial ogue
ol is
ĠAr k
sp ec
y o
st ic
ĠMal ays
Ġext ent
Ġresident ial
Ġafter noon
Ġcru isers
ĠSt ock
d a
ic an
Ġinst ance
Ġannoun ce
Ġlear ning
Ġsubstant ial
ull ivan
Ġdet ailed
ig en
Ġbe ach
Ġaud io
ropol itan
Ġv ul
Ġimp ressed
or age
ĠWrit ing
Ġut il
ĠC z
ĠC am
ĠH orn
ĠL ane
M A
j o
Ġst em
un es
Ġunivers e
Ġav o
pris e
ĠInit ially
Ġm art
ĠMarsh all
Ġs ke
Ġe asy
end ment
Ġperiod s
ĠW restling
Ġpl ate
ĠFound ation
Ġh uge
or ial
Ġtem por
l ock
Ġpubl isher
ĠD ave
Ġent hus
Ġh at
rib ed
Ġimp rison
Ġt aught
Ġterrit ories
Ġte eth
ĠFreder ick
Ġreview ers
op ter
Ġdr iver
Ġtest ing
ĠEr n
Ġvide os
vi ation
Ġ192 8
Ġh appy
Ġisol ated
ot es
Ġst able
Ġfe ud
og an
Ġvess el
iam i
b oy
Ġt ests
Ġc a
Ġup d
ĠHor se
Ġb ridges
ĠH aving
Ġdiam eter
Ġl ob
ĠB anks
Ġrep rodu
Ġunderst and
Ġwithd rew
Ġpick ed
Ġencoun tered
Ġupgrad ed
ro ph
Ġnegoti ations
ep ing
Ġag ents
F C
Ġsym pt
Ġgood s
Ġin her
ch o
ĠMar io
ĠSomers et
ĠRele ase
at ically
ĠAn na
Ġ192 5
ro ke
ĠB uck
ĠJ ess
Ġdang erous
id ae
Ġag ed
ĠK now
Ġsim ultane
Ġ189 0
Ġdi agn
m ission
Ġj unior
Ġfound er
Ġsat ell
Ġnorm ally
Ġdet er
ĠAng lo
Ġbehav i
se a
Ġrel ie
Ġwind ow
Ġfact or
Ġkeep ing
ĠMiss iss
Ġcoll aps
Ġspec imens
Ġre un
Ġpart ly
ĠM iami
ut t
Ġsu re
ĠGi ants
Ġf ur
Ġmed ium
bor ough
Ġeth nic
Ġtechn ique
Ġfrequ ent
ĠPlay er
Ġt ie
Ġc risis
ol as
Ġp ounds
ĠC all
Ġm ir
Ġlow est
et ime
ĠAl ab
ĠE xt
b ridge
Ġv ic
Ġpro hib
Ġmon ument
Ġorgan izations
Ġout f
ĠSe attle
Ġapp rec
Ġ192 4
Ġto ll
Ġd iet
Ġengine ering
Ġtur rets
Ġtravel ed
i able
aw ay
Ġwhere as
ĠChampionship s
ĠS oon
Ġref ers
c hen
ĠC re
Ġins c
Ġrare ly
ĠO p
Ġres ear
Ġdesign er
hel m
Ġt one
Ġp ed
ĠTre k
us al
Ġpro ced
ĠTreat y
Ġl ose
Ġv ice
Ġmain tenance
ĠHum an
Ġa x
ames e
Ã© e
iec e
b rid
Ġdoes n
ĠC R
ĠH and
Ġpart ially
Ġ0 7
ĠM L
Ġor b
ger y
Ġperm ission
ĠI owa
Ġsp ending
Ġadv ice
Ġver se
ĠAlab ama
Ġl ad
Ġcritic ised
Ġby pass
enn is
ĠFor ces
ĠAustral ians
ĠNap ole
ig s
Ġpl atinum
Ġcomp lic
Ġdifficult ies
x ual
Ġfinal e
y gen
Ġag ree
Ġrest ric
Ġunc ertain
Ġpolic ies
l s
ok ed
Ġexc ell
Ġfinal s
Ġcompet e
Ġrank ing
Ġp hen
Ġpro port
Ġmain stream
Ġindic ate
c ol
Ġperson ality
Ġun n
Ġref uge
ĠB uff
ĠH u
ĠD ur
Ġl iqu
Ġpit ched
il st
Ġant icip
atter ed
in ction
Ġconcer ts
ĠThe n
Ġcom ments
Ġrecord ings
Ġrem ove
ĠCharl ie
ĠCarib bean
usc ript
Ġm amm
Ġshe ar
Ġwind ows
Ġcover s
Ġsaf e
ĠCan al
ĠMin nes
Ġsy mp
Ġ192 3
ĠLaw rence
Ġrep air
Ġstri p
Ġmor al
Ġfall s
Ġrepresent ative
Ġse ats
Ġfor cing
ud a
ĠA h
Ġrec ur
Ġext reme
Ġrest rict
ĠMc D
ĠYan ke
Ġf ighters
Ġh ull
ĠB ros
Ġrecomm end
Ġr ates
Ġj ur
Ġover s
ĠCro wn
che ll
ĠM P
Ġal ter
ĠN at
p ower
Ġprot est
Ġprompt ed
Ġto t
Ġtr uth
Ġdestroy ers
ĠTown ship
Ġt enth
ran g
ĠSen ator
Ġdyn asty
en h
Ġdif f
Ġdescrib e
ĠM ach
Ġrec onst
Ġunder w
Ġexam ples
ĠE P
Ġmin imum
ĠI an
Ġbas es
Ġt ub
Ġph r
is d
Ġp in
ĠMin istry
ĠNaz i
m ates
Ġtrav elled
Ġh ockey
A r
ur ance
Ġch urches
ĠUS D
Ġfriend ly
ĠG arden
ĠBl ood
ĠGram my
s k
ĠB rig
if er
ĠHe alth
ĠDe ad
ĠHung ary
Ġneighbor hood
d ie
Ġboy s
Ġp ric
im eter
Ġbomb ers
al ions
ĠPol it
Ġdraw ing
ĠCount ry
ĠÃ Ĩ
ĠBen j
ĠChrist opher
m ers
ĠD ance
ĠRet urn
ĠB an
Ġin aug
Ġj u
ug by
Ġdo ctor
Ġm and
Ġhous ing
Ġdisplay ed
Ġappro val
Ġtrib ute
Ġadj acent
ĠBelg ium
ĠR oc
onna issance
Ġcoll apse
Ġt urb
Ġcred its
Ġaw are
e u
Ġjoin ing
Ġlist ing
w a
ĠH amp
od s
Ġ0 1
Ġcreat or
Ġgro wn
Ġdesign ation
ĠDie go
b ra
ĠD C
ĠE vent
od ore
ant e
z z
ĠShak esp
Ġpartn ership
ĠR and
Ġadv is
Ġf ung
ĠC old
Ġexpl o
Ġprot agonist
Ġref ere
i ac
Ġstorm s
Ġmom ents
Ä į
ĠRep resent
Ġar ts
Ġact ed
Ġcreat ive
ic y
ĠMed al
Ġchang ing
Ġpow ered
ĠG ab
Ġwhe el
ĠM uch
Ġas ks
Ġ *
ĠH ud
ã ģ
ĠK al
ĠLa ure
it ud
Ġround s
Ġinstrument al
ĠChild ren
Ġrad ar
Ġtre nd
Ġvict ories
vel t
Ġposs ession
ĠC amer
ĠL l
Ġ190 8
Ġdoll ars
Ġ els
ĠB eck
Ġpaint ings
Ġcan al
Ġtreat y
Ġappoint ment
oun ced
Ġcover ing
ĠKh an
ĠMic hel
Ġels ewhere
st ers
Ġ190 5
Ġvill ages
Ġsurv ive
ĠC red
es h
Ġmin imal
Ġ190 9
Ġelimin ated
ĠRec ord
ot ten
ĠLeg acy
ic ts
Ġscient ists
Ġsurpris e
ĠBenj amin
ĠGuard ian
Ġp ool
Ġinn ov
Ġprec ip
Ã §
Ġt elling
ĠK urt
ĠMinnes ota
iv ated
ĠHill s
Ġoccup ation
Ġseek ing
ĠRo ose
ĠMississ ipp
Ġb rick
Ġhel ic
Ġarr iving
Ġrhy thm
c op
Ġsu icide
Ġanal y
Ġlo an
Ġnewsp apers
Ġem peror
Ġhelp ing
ĠVietn amese
ec raft
ĠH ockey
Ġpurp oses
Ġbenef it
Ġtw in
Ġsm ooth
ĠAlf red
Ġval ues
ĠA R
Ġoccas ions
ou ri
ĠS et
Ġg ard
act ive
ĠInter state
ĠF al
Ġun like
ĠMan hatt
Ġdisp ute
ĠAdm inist
ĠH ong
rup ted
Ġf ishing
ĠH ind
ĠD iv
ĠManhatt an
v y
Ġo ption
ĠT un
ĠTh or
Ġdeg rees
ĠSte vens
Ġw et
Ġ10 5
Ġg at
ĠWalk er
or ious
Ġmur d
um an
Ġ12 5
Ġso il
ograph ical
ro id
Ġman uscript
n o
ĠL in
Ġsched ule
Ġstrugg le
Ġbal ance
ĠA ff
ĠFrank lin
Ġ0 4
Ġpres erved
ĠPen insula
ĠCom b
r m
Ġc ryst
over s
ĠShe l
ĠFl ight
ĠPer form
ĠS on
Ġres umed
ĠAn im
Ġcircum st
ĠRoose velt
g on
ĠTr ust
ĠK ansas
Ġ190 7
ĠB h
ack s
Ġsurviv ors
or ph
Ġpublic ly
Ġcompet ed
Ġ Ä
Ġc ateg
mun ition
n ik
Ġfl ash
ather ine
Ġco oper
Ġviol ent
Ġ16 4
Ġcandid ates
ri x
Ġhon our
Ġp y
rom e
Ġpro cl
Ġintens ified
ĠB ull
ĠW ard
Ġsp an
ish ment
Ġimp ossible
ĠPort land
Ġpil ots
Ġw rest
Ġd ies
ac le
ĠF ried
act ion
ĠIndust ry
Ġneut ral
Ġwed ding
ĠN ash
Ġb id
inc ial
S P
ĠI ce
Ġab ilities
Ġco ordin
Ġc ook
ul ating
Ġbeaut iful
m ph
s ky
Ġal ignment
Ġconc rete
Ġmult i
ĠSat ur
ok ing
Ġass isted
ĠHot el
ĠPhilipp ines
ĠB orn
f ted
ĠV I
Ġpo ison
Ġarg ument
ĠL ith
Ġpro sp
Ġdefe ating
Ġcons ult
Ġadv oc
Ġelect ronic
ob ile
Ġteach ing
Ġn ations
Ġ188 0
ĠBu ilding
ĠD om
ens ions
Ġsim pl
Ġbusiness es
Ġcust om
is p
Ġl ists
Ġover t
ĠP le
ĠJ os
Ġr ivers
ap h
Ġser ial
il ty
ĠN ative
Ġ16 5
Ġle m
Ġdisc ip
ĠCo le
Ġd anc
Ġel abor
Ġabs ol
ĠW olf
Ġsu itable
Ġopp onent
Ġass ists
ĠMississipp i
Ġagricult ural
ĠL am
ĠBr un
Ġm ines
Ġencoun ter
Ġox ygen
Ġsub mitted
Ġfound ation
Ġinterest ing
Ġtun nel
e are
à ¤
Ġsign ing
ĠDig ital
Ġp arent
ĠAre a
Ġback ing
Ġfif teen
Ġschol ar
ĠC ob
ĠBl ues
Ġunderst anding
it ated
C A
Ġbeh alf
ĠD w
row s
iven ess
Ġs unk
Ġc iting
ic er
ĠH em
Ġw aves
Ġg rey
Ġs ank
ĠW ol
ĠS ullivan
Ġpercent age
ĠAlex and
Ġforest s
f ace
Ġn inet
Ġam munition
Ġsympt oms
ĠShakesp eare
d ale
ĠT ag
Ġor bit
Ġspirit ual
ct ic
ĠD od
ĠCamp bell
ĠTenn ess
b l
Ġpar ish
un ch
Ġsubject s
ĠHal o
Ġfor ty
Ġsk ull
Ġsit uated
Ġclos ing
ĠA thlet
Ġim perial
ĠHin du
Ġn om
Ġsign s
Ġj unction
ĠV inc
Ġrep airs
al ities
ĠP rom
ag en
Ġus ual
ĠK ings
ĠN on
ĠHer o
onym ous
Ġres olution
Ġill ness
Ġvo iced
Ġdel iber
Ġport ra
ĠSte ven
Ġcor por
ĠR ab
as ters
Ġass ess
Ġcontro ll
ĠB ox
Ġfun ctions
Ġaud iences
Ġattend ance
ĠHistor ic
ĠF riend
ĠLuc as
1 0
ĠR ace
ĠD est
ĠJ osh
Ġask ing
l ah
Ġdis aster
ĠEgypt ian
Ġcollabor ation
ĠK u
Ġrestaur ant
f ather
am ic
Ġst ring
Ġfeel ings
Ġsusp ended
ĠM ack
Ġunder ground
Ġfl ights
Ġmount ains
Ġl ieutenant
Ġw orship
Ġev il
amp s
Ġtar gets
Ġcar go
ĠR en
Ġaff airs
Ġex it
Ġ187 0
ĠTenness ee
Ġearth qu
Ä ĥ
ar on
ĠWar ren
Ġoper ational
Ġinit i
Ġpr on
Ġwill ing
ĠLouis iana
ĠMarg aret
r ator
se x
Ġ190 6
Ġaff air
Ġrec re
r us
Ë Ī
os m
Ġfun eral
ĠDep ression
or i
Ġan ch
Ġaim ed
ĠLab our
Ġpro l
res ents
Ġ36 0
ĠMont real
ĠT an
id d
Ġcomp ilation
ĠMc L
Ġ190 4
ĠPal est
Ġpoor ly
Ġdoc uments
Ġab ol
Ġf iled
u v
qu es
Ġle ct
Ġmeas ured
u able
Ġadop t
ĠMiss ouri
Ġs ector
Ġsub t
Ġaff ili
Ġfavor able
rac ts
Ġregister ed
Ġlik ed
r ants
we et
Ġrecogn ised
Ġro ut
Ġel der
Ġconsc ious
Ġcirc uit
ĠApp le
Ġstat ue
Ġtempor arily
Ġb ot
and al
Ġexplos ion
ate ur
ĠSt at
Ġshell s
Ġentertain ment
Ġrep resents
Ġprofess or
ĠCrit ics
ĠN ag
f e
an ium
Ġj azz
Ġrepl acing
ĠB illy
ĠDrag on
ĠMit chell
cept ion
ĠR ing
Ġsequ ences
ĠC ow
Ġprepar ation
ĠJo h
ĠSt r
ĠSm all
Ġfif ty
ine a
ik a
Ġb en
ĠCz ech
id el
Ġoff ering
ĠKir k
Ġart work
Ġinterp re
ĠIndepend ent
Ġ0 3
over e
Ġres idence
Ġrest oration
ĠS now
ĠP ed
Ġc yl
g ate
Ġr ig
Ġdirect ors
Ġnuc le
ĠGra ham
ĠM ess
ĠV is
Ġmar gin
ĠBus iness
Ġw ore
ad i
ĠM es
Ġter ror
ĠMag n
ĠF em
ord ers
er a
Ġrel uct
Ġref lected
ĠN ear
Ġover w
Ġpr ime
Ġexp ensive
iss ions
spec ies
Ġall iance
Ġsuggest ing
ĠY e
Ġto uring
Ġthink ing
inent al
ĠL ov
Ġcomple ting
art ney
Ġrebu ilt
Ġalco hol
anc ell
Ġamong st
Ġb anks
un c
b ishop
Ġf rig
C C
ĠM aur
ĠU E
ĠSe ven
yl an
Ġhor ror
r ace
Ġesc aped
Ġpul led
Ġb ay
el lect
qu ir
Ġlack ed
ĠAri z
Ġcanc elled
ĠF rid
Ġgra v
ĠCub a
re p
ĠEd ge
Ġarm ored
Ġc od
Ġd imens
Ġcover age
T A
Ġre ven
Ġwas n
Ġr acing
Ġam ounts
Ġclear ly
ac on
ĠCh and
Ġdec ides
ĠGu ide
Ġeng agement
Ġpred omin
Ġtrib es
Ġarg ues
Ġer upt
Ġcolon ies
ip h
Ġdram atic
Ġg arden
Ġfam iliar
Ġcommunic ation
app ing
overe ign
Ġpattern s
Ġc ous
Ġr it
ĠInd ies
Ġmark s
ĠPh oen
ĠF iles
Ġdro ve
ok es
ur ally
Ġown ership
ra k
ĠTam il
Ġse ed
Ġremn ants
Ġpers pective
Ġmerch ant
ĠC her
ĠPers ian
u ary
Ġs aved
ĠS ony
st orm
Ġg ang
ĠG rey
ĠAriz ona
Ġcontrib utions
ĠSatur day
Ġmat hemat
Ġpo ems
Ġsol ution
Ġbad ly
Ġpr int
Ġfast est
Ġadminist rative
Ġwick et
Ġfal se
Ġt ag
Ġex ecut
ĠMar ie
Ġ11 5
Ġarm ament
Ġcrew s
Ġplayoff s
t i
Ã º
ĠD ylan
Ġmilit ia
iet ies
Ġexc av
Ġart istic
ĠSc out
Ġcharacter ized
Ġbul k
ath y
Ġbound ary
Ġsever ely
Ġinstit utions
Ġr ising
Ġear ning
ex p
j e
s es
Ġflag ship
ĠConfeder ate
ĠBure au
ĠL as
Ġdisapp oin
f ish
id ency
Ġk ings
Ġret ail
ĠP a
og a
Ġdep ending
Ġinhabit ants
Ġnot ice
it ting
Ġb ran
Ġcon text
ov a
om ber
Ġexpl ains
Ġide al
Ġdistinct ive
b re
or er
ment ed
Ġfr ust
Ġdemonst rated
Ġth rew
Ġin land
Ġcompar ison
ĠOk lah
Ġb ronze
Ġgen etic
Ġrestric ted
Ġcond em
e qu
Ġrank s
Ġbow ling
Ġrang ing
c ru
Ġrec ip
Ġarr ive
Ġfall en
ĠS in
ell i
Ġear n
Ġs isters
ĠAust rian
Ġcontrol s
ect ic
u ations
Ġqu iet
iv ia
ĠN ik
Ġexpl ain
ĠSw itzer
ĠA my
Ġg ap
ĠL ang
Ġman eu
Ġlo op
ĠProg ram
ĠS uch
ĠL iz
Ġv el
Ġk W
Ġob vious
ĠBroad way
Ġwid er
l ife
Ġpract ices
Ġw ants
Ġelect ron
Ġ190 1
Ġrev ol
Ġ17 4
ĠHar vey
ĠWil helm
Ġvul ner
Ġt ip
Ġt rick
ĠE conom
form ation
ĠSwitzer land
Ġsh ield
Ġcons ervative
Ġrid ers
ĠMr s
ĠMur phy
Ġf aster
Ġm ental
l ings
ot ton
ĠA BC
Ġacc eler
ast s
ock ing
Ġnorth ward
Ġexhib ition
Ġk it
Ġme at
Ġsy nd
ĠN a
Ġsur ge
Ġfr ame
Ġdistingu ished
Ġpl us
Ġev olved
Ġspot ted
et on
ĠBar ry
Ġp ace
ov en
Ġexc lud
ĠDel aware
Ġre aches
th a
Ġmill imet
Ġsatell ite
ph a
um a
Ġnomin ations
Ġtri ple
ant on
r Ã©
Ġprep are
Ġpal ace
Ġapplic ation
h u
Ġag ency
ĠOklah oma
E C
Ġg ate
ĠFeder ation
Ġw reck
ĠT el
in ations
Ġquarter back
Ġdomin ant
Ġst orage
Ġte x
Ġhousehold s
Ġarm our
sequ ently
rupt ion
Ġcar riers
ĠCl ar
ĠOrig inal
Ġprote in
Ġsub species
Ġpred icted
Ġaut obi
ĠR at
Ġ0 2
Ġty phoon
Ġ190 3
ĠB omb
Ġv s
Ġsl aves
Ġ15 5
Ġatt ained
Ġblock s
ur er
Ġb oss
Ġint ellect
Ġall ies
Ġbatt alions
Ġ190 2
gr ade
Ġprin ted
Ġrepeated ly
el and
Ġab und
uk i
Ġpredecess or
Ġv ast
ĠLith uan
Ġth or
Ġfix ed
Ġst ores
Ġst rict
Ġver tical
Ġpe aking
Ġsur gery
Ġart icles
ĠPer ry
ĠRid ge
d in
ĠM ik
Ġout l
ĠHar v
Ġt ack
on ed
id ers
Ġy ield
ĠOrigin ally
Ġsign al
Ġexcell ent
ript ions
ĠLes lie
l us
ĠA y
ĠA ld
ĠF if
Ġwest ward
ĠBase ball
Ġbomb s
ĠBab y
Ġphilos ophy
Å «
Ġille gal
I S
ro se
Ġdis agre
asc ar
im en
ĠV e
Ġbi ographer
ĠTok yo
Ġphen omen
Ġadvent ure
Ġper ceived
Ġpre tty
Ġremark ed
ĠR ih
v ant
ĠD S
ĠL ess
Ġwa iting
Ġcircumst ances
ĠH ur
ic ate
Ġcom fort
ĠDen mark
ĠM other
Ġuse ful
Ġmeet ings
Ġserious ly
Ġcho ose
Ġt ight
ar o
ĠH ann
Ġcur ren
Ġap artment
ĠJon athan
Ġsurre nd
T W
Ġcivil ian
ĠR ico
Ġcoin c
it age
Ġrec onnaissance
ĠBern ard
ĠJohn ny
yl er
augh ters
Ġsk et
ĠPlay ers
ĠCamp aign
ĠAtlant a
ĠTer rit
Ġdrug s
Ġs ick
Ġg ust
r ings
ĠR oll
ĠRih anna
ĠC hel
Ġph one
Ġdoll ar
ĠAbb ey
ap olis
Ġlay er
Ġb reat
ĠT on
Ġwh ilst
Ġch amber
Ġret ain
az ing
Ġread ers
Ġinstit ution
ĠP il
Ġ10 1
ĠJu an
Ġcast ing
em en
ĠW or
ĠN ixon
Ġr ub
Ġfriend ship
n g
Ġh olid
Ġsimilar ly
Ġvis iting
Ġstrengthen ed
ri k
Ġmat ters
Ġt iss
L C
m i
est one
Ġal ive
Ġdem anded
Ġh orn
ĠM aj
Ġplan ets
r int
ĠC hen
ess es
ĠEd wards
ĠIn n
Ġsimultane ously
in ian
Ġ16 8
Ġleg acy
Ġenl isted
ming ham
Ġpan el
ar th
Ġaltern ate
ĠPit ts
j an
ĠAr nold
ĠMc M
on omy
Ġem pt
Ġins isted
ĠO pp
ĠRail road
ĠW ag
Ġship ping
Ġbomb ing
Ġre vers
est yle
ĠKe ith
g ro
Ġl anes
ac c
Ġjust ice
ĠS oul
Ġh ook
ĠR al
ĠR ub
ĠLe x
Ġdem ands
Ġmain land
Ġneigh b
ro v
Ġre venue
ĠMad ag
Ġathlet es
ĠPri ze
ĠI ran
Ġprom ised
ĠJim my
P A
ent le
Ġro ots
Ġport ions
ar ation
Ġcon sole
gh an
ĠS em
Ġperson ally
Ġstrugg led
reg ation
Ġgu ilty
Ġlook s
Ġdr ivers
ĠIntern et
Ġguitar ist
Ġdefin ition
Ġcontin u
Ġprop ag
Ġp ione
Ġback ed
ĠMic ro
l ain
Ġbehavi our
ĠR achel
Ġorchest ra
ac re
Ġarm ies
Ġaud ition
Ġd iver
ĠP ars
Ġs ung
ĠC ost
ot yp
ĠJ ar
Ġart ific
it i
ĠV ik
Ġjob s
ĠFurther more
ĠSh aw
Ġdemol ished
ĠYanke es
od ox
Ġ16 6
Ġob lig
ĠTr acy
ar ant
Ġthe ater
Ġstar ring
Ġin du
ĠB ach
ĠL ost
ag h
Ġmarket ing
ĠH ugh
ĠF el
Ġconsp ir
it is
Ġrul ing
Ġess ential
ĠBir mingham
Ġd ancing
az ines
Ġbelie ving
Ġfe els
ĠCom ple
Ġsur pass
ĠConst ant
Ġpurs ue
Ġorgan isation
Ġprof ile
ĠGr ay
ĠEvent ually
ĠF at
ind ing
Ġcount ies
Ġp unk
Ġcomp ens
Ġhead ing
ĠM ans
ater n
ĠCan ter
ĠMcC artney
ic ation
ĠN ine
Ġob st
Ġfact ory
ĠImp act
Ġbon us
a very
Ġc up
Ġmin ing
Ġincre ases
Ġcompl iment
ĠOb ama
ĠUnivers al
f olk
Ġ10 9
ĠDef ence
ĠS ak
Ġdisc ont
ract ion
Ġfore cast
Ġdiscover s
Ġdeliver y
Ġp ages
ap ped
Ġexp ression
ou ver
ĠS ig
um ps
Ġer ected
Ġcl othing
Ġpat ron
ĠJ up
Ġelev ation
ĠBudd h
Ġaff ect
ĠEnter prise
Ġsuc ceed
Ġs q
ĠB aker
Ġport s
ĠBob by
Ġmob ile
Ġs alt
ĠHud son
ĠPhoen ix
Ġmultip l
f le
Ġs ad
Ġsecret ary
ĠT ol
ĠS i
ĠK l
c les
Ġst ick
Ġor n
ĠPot ter
Ġoverse as
ĠPear l
p y
ĠP ubl
Ġeng age
Ġdoub t
ult an
Ġcre st
Ġhor iz
Ġac ou
Ġmay or
ĠWay ne
ĠKar l
Ġdef ences
ĠConn ectic
Ġdr ink
Ġdem ocr
Ġdeter ior
ĠMadag ascar
Ġk iss
ĠPe ace
tar io
Ġacc um
ĠGirl s
ĠR ights
ĠTod d
ĠConnectic ut
Ġal tered
Ġsett lers
b ird
in ces
ĠN AS
ir ty
Ġren ov
Ġbab y
ow ed
Ġc hest
au x
ĠBos n
O S
Ġp ale
ĠH old
ĠOn tario
Ġexp and
Ġobject ive
ĠWork s
ĠMor rison
Ġst ress
ell o
Ġcan cel
ĠDe b
Ġlegisl ature
ĠCanter bury
Ġhigh ways
sh ore
Ġlist en
war f
ens ively
Ġconvers ion
ĠFrid ay
m at
o ons
ĠP att
Ġv oy
ĠK it
Ġmusic ian
ĠCommun ity
m und
Ġw restling
as ant
ĠD iam
ĠM anu
ir ts
Ġsold ier
Ġcampaign s
Ġaer ial
st an
ĠR an
ack ed
Ġdis l
Ġorgan ised
Ġindic ating
Ġcomp ounds
ok er
Ġra ising
p ent
ĠG oth
Ġafter math
Ġdec isions
ĠAll ies
ĠLeon ard
ĠNapole on
ro us
ĠF arm
ak s
Ġra ids
Ġsit ting
Ġconcent ration
am ents
Ġsc en
ĠSp art
Ġsol ar
ĠBoy s
Ġtur ret
rat ropical
Ġdissip ated
Ġh app
Ġtro uble
yr us
Ġliqu id
Ġh idden
Ġpro ve
ĠFore ign
ĠCy cl
Ġwealth y
ĠA S
ĠB ath
ul ous
if ies
Ġrad ical
Ġacknowled ged
Ġreal ized
Ġstri king
ĠL at
Ġd ressed
ĠT NA
Ġexact ly
Ġappropri ate
o a
Ġan th
Ġdang er
ĠP y
Ġconf ron
Ġimpro vements
Ġperm itted
ĠPr uss
ĠMount ains
Ġchap el
Ġexec ution
ĠK an
ĠWind ows
ĠGri ff
ĠT ed
ĠL aur
Ġpublic ations
Ġsk i
Ġgrad uated
Ġagg ressive
Ġevac uated
Ġremov al
Ġen cl
Ġfew er
Ġinterpret ation
Ġprof it
Ġceleb rated
Ġb ones
Ġsh arp
ĠZ e
Ġven ue
Ġobserv ations
ĠD all
ĠCh ampion
Ġmet er
Ġinit iated
Ġm ac
ot te
Ġtravel s
Ġtheat rical
Ġn et
ĠG ary
ĠLe gend
ues e
ĠOut standing
ĠUE FA
ĠSe ason
Ġ15 2
Ġsk y
Ġstation ed
O T
in ister
Ġl in
at us
iv ation
ĠV anc
Ġcann on
Ġt ort
Ġfound ing
it als
Ġdef ending
Ġrequ ires
Ġrebell ion
Ġpubl ishing
Ġorigin ated
Ġstep s
itud es
ĠVanc ouver
Ġorig ins
Ġconsid ering
Ġjur isd
ĠL ion
Ġestablish ing
r un
Ġdeb t
ĠJup iter
ol ly
Ġext ratropical
ĠSy mph
Ġconn ect
ad al
ĠG ate
ip per
Ġexpl an
Ġbr ill
Ġstrateg ic
Ġmus h
ĠTri ple
ug g
ĠMin t
Ġyoung est
Ġsup ple
ĠT it
ĠM em
ĠDr ive
Ġapproach ing
ad ier
ĠP ap
ra pped
Ġarrang ements
Ġf antasy
Ġpl acing
Ġsh orter
ĠAb d
Ġcut ting
ĠEd in
Ġannounce ment
Ġgu arant
Ġmag azines
Ġwalk ing
ĠCh ampions
Ġ10 4
Ġdon ated
it ively
Ġl ying
ann on
ĠAdminist ration
ĠL ib
enn ium
aut ical
ph one
Ġer r
Ġconn ecting
Ġhost s
Ġasp ect
ĠPak istan
Ġm emor
Ġon going
ĠSt u
Ġmag ic
Ã ¦
ĠC ov
he ars
Ġ17 3
Ġdiscuss ion
a is
Ġin g
ĠO ur
Ġed ited
ĠL en
aj a
ĠBrad man
Ġtal ent
ĠPortug uese
ĠÃĨ thel
Ġfun ny
Ġ186 0
Ġclos est
Ġins ects
Ġstrong est
ec ution
Ġcolle agues
Ġc ub
ĠS hip
Ġgl ac
Ġput ting
Ġtub es
h ous
f ts
Ġm al
Ġqual ified
Ġwithdraw al
as a
ĠAl ice
Ġland scape
Ġred e
Ġgat hered
Ġfor th
Ġdec ide
Ġbattle cru
Ġvol umes
Ġpred ict
Ġhyp othes
ĠDw ight
Ġident ify
Ġang le
ĠNC AA
Ġcollaps ed
à ¸
Ġsw itch
Ġcirc le
Ġindic ates
ĠTro phy
Ġchallen ged
ĠM ong
ĠG ene
ĠJ oy
Ġdes ert
vent h
ĠIs a
Ġmer ely
Ġgr ay
Ġfor g
Ġcou p
Ġsuppl ied
b ow
ĠAn c
Ġconf ront
Ġmark ets
Ġ189 3
od ge
Ġcap s
Ġwaters hed
on ium
ĠT ype
Ġbe am
ear ing
Ġpart ial
Ġexp osure
at ra
Ġl es
elt a
ĠFle ming
ĠMet eor
Ġdens ity
Ġneigh bour
Ġspec imen
ĠRes erve
ĠHon or
Ġconvent ional
ĠC hes
ĠD ub
ĠMar vel
enn a
Ġ189 6
Ġb are
Ġb rig
ĠM ission
ĠY ears
av el
Ġpl ain
Ġlim its
ĠP am
ann er
Ġdub bed
Ġsh ift
Ġsp ac
Ġhydro gen
ĠHamp shire
j oin
ag ger
Ġvis its
Ġcor ps
Ġconcent rated
igen ous
Ġmembers hip
ĠAf ghan
ĠOl iver
Ġfeed ing
Ġn avy
iet h
Ġann ually
Ġeduc ational
ĠEdin burgh
Ġc ock
Ġex ha
ĠSt ri
ĠB ak
Ġbe aring
ĠTh ose
Ġto pped
so ft
Ġprov ision
Ġse ized
Ġass embly
ĠF lying
Ġcl in
Ġpri ze
ĠT ob
ot al
oc y
ip er
Ġ12 7
Ġrang es
Ġt rough
ĠS omet
ir ates
ist a
ĠB eng
Ġ189 8
Ġattend ing
ather s
Ġmar ry
Ġpar ody
Ġemphas is
ĠMos c
Ġch ampions
Ġdu o
ĠVictor ian
ĠS ay
ĠN atural
ĠPr incip
ament al
ĠChart s
Ġleg it
Ã¼ r
Ġb acter
ĠT ig
h ard
ĠW here
Ġoff ense
Ġ35 0
Ġproduct ions
Ġinvestig ate
Ġ17 2
Ġdog s
Ġf urn
ar r
ĠBe gin
Ġweek ly
Ġbas in
ĠFin ally
uzz le
ĠP in
Ġtalk ing
Ġexerc ise
Ġan ime
ĠBe aut
Ġb one
Ġun less
Ġj ury
ĠMon te
ĠDemocr ats
Ġtick et
on ica
ĠL ist
ĠK ap
Ġres ol
ĠMe g
ĠPerson al
Ġ11 1
Ġpromot ional
Ġflood ed
ĠTurn er
Ġf ill
Ġb ond
ĠMay a
Ġcru c
ĠC elt
ass ador
ĠYork shire
Ġce ased
oy s
ĠRal ph
ter ior
Ġfort ress
Ġadvert ising
Ġemploy ment
Ġster e
ĠLl oyd
ĠM S
Ġreg ime
Ġpers ons
Ġbirth day
Ġportray al
ĠArgent ina
Ã °
er k
Ġunc le
ĠK o
port ed
ĠA x
ĠM and
Ġun com
Ġqu een
ĠOver all
Ġunderw ent
Ġatt itude
ris ing
Ġinv ent
ĠP ink
ĠO m
Ġsc attered
Ġout put
Ġco ff
ĠVill age
Ġphotograph s
Ġev al
Ġcons ervation
Ġsend ing
pl ed
ĠCon vention
Ġhit ting
ĠChristian ity
ay an
Ġball ad
Ġexperiment al
Ġassemb led
ĠBrother s
ĠT ak
Ġmat ure
Ġgu ide
Ġquestion ed
a ft
ra wn
Ġcomment ary
Ġoverw hel
ad ers
Ġdr inking
Ġb ishop
as hes
ov iÄĩ
Ġimag ery
Ġsoft ware
ĠL t
Ġex ternal
Ġ189 9
ĠJer ry
ĠCra ig
ĠH az
Ġend ors
Ġprov incial
Ġrepl ied
Ġter rain
Ġunc lear
ĠP rop
ĠK am
ĠBook s
Ġtransl ation
Ġagg reg
ĠChron icle
ĠF und
Ġout d
Ġprocl aim
h aw
Ġlaw yer
ĠPr im
ham mad
Ġswim ming
Ġw ire
Ġp apers
ic ations
Ġcl ock
h in
Ġcomp rom
olog ies
Ġthir teen
Ġliber al
Ġemp ire
ĠColl ins
Ġc ens
Ġtra il
Ġrepresent atives
rap y
ĠMar ge
Ġlaw su
Ġcous in
ĠC ad
Ġco at
ĠE ug
er r
id al
Ġst reak
Ġwa it
ers ed
Ġsh r
Ġbur ial
ĠQueens land
ĠAp oll
Ġmon aster
ĠFin land
Ġpict ures
Ġlov ed
Ġd uration
am as
ĠL ock
ĠAnd re
Ġacou stic
i oc
ĠGl en
Ġmov ies
Ġsl ave
Ġexper t
Ġdev ast
Ġpen et
Ġexclus ive
O K
Ġs ang
ĠG or
Ġstrong er
Ġelectric ity
Ġaccompany ing
Ġbran ches
Ġ10 8
ĠHow e
Ġsurrend ered
Ġarr ives
Ġd aughters
im m
Ġbe ats
Ġident ical
Ġreinforce ments
Ġc ad
am an
Ġten ure
ĠHard y
ĠP ad
ĠW ii
ens ed
ows ki
ĠSimilar ly
ĠBo at
ate ver
ĠNor folk
Ġsuccess ion
Ġreve al
Ġd read
pl ace
ĠJ un
pl er
Ġchar ter
ĠProt est
ĠHawai i
Ġre verse
ĠS le
ĠHer itage
Ġredu cing
Ġdestroy ing
Ġp ush
ri ors
Ġcomp onents
Ġ16 9
ric ts
ĠProfess or
Ġpric es
ro d
ĠS ign
ĠR ic
ĠJ ama
ell ation
ĠBur ton
ĠServ ices
Ġpre v
Ġtrad ing
ĠDon ald
ĠNich olas
Ġexclus ively
ĠD in
Ġcomp onent
Ġsc ar
Ġrec all
Ġmy st
ĠBel gian
er g
ill es
Ġfail ing
Ġsle ep
Ġsp aces
Ġcompet ing
Ġ185 0
Ġmechan ical
ĠCommun ist
Ġto mb
Ġgovern ments
ol en
Ġst ops
ĠD ak
Ġcounter p
Ġis ot
ib ilities
ey er
Ġqu ad
enes is
ĠRang ers
ĠBenn ett
Ġprecip itation
ĠC atherine
itar ian
ĠVinc ent
Ġat omic
ang el
Ġpol ar
Ġpo le
Ġre ward
ab e
Ġsl avery
Ġflow ers
Ġd ict
ĠC ricket
Ġobs c
ĠTra ining
Ġb anned
ĠTh under
Ġdevelop ers
ĠDav ies
ĠMed ical
Ġcent ers
Ġmin i
ĠEm my
Ġdev ices
Ġfoss il
c ase
he ll
on ian
Ġw ish
ĠD ram
ĠN i
Ġtrad ed
ĠCred its
est y
ĠDe ep
Ġvar ied
Ġel ig
Ġcontrib ution
ĠTransport ation
ĠM alt
ĠY ellow
Ġconsist ent
Ġwas te
ĠR ud
Ġburn ed
Ġred es
I V
ur as
Ġinc om
Ġplatform s
ĠLiber al
ĠLoc al
Ġconf irm
Ġp el
ĠL em
Ġconsid ers
ĠSw ift
leg raph
ĠT ax
ĠH ob
ĠL iving
Ġarchitect ural
Ġartific ial
Ġo w
et hel
ĠL ook
Ġrad iation
Ġt ube
Ġb ath
Ġhy brid
Ġinters ects
Ġtalk s
Ġearthqu ake
Ġ16 3
Ġhum or
ĠHug hes
Ġsongwrit er
Ġfour teen
ĠGu itar
Ġvir us
ĠF u
Ġdis b
ĠScient ology
ĠC urt
rast ructure
ĠM ust
Ġpro ceeded
g s
ĠC O
Ġl ie
Ġbo ilers
Ġelect rical
Ġfrequ ency
ĠNe xt
ĠHarv ard
p ike
Ġwe igh
ro st
Ġe cc
Ġair field
Ġadv ised
Ġreview ed
Ġ189 7
ĠMark et
Ġunderst ood
ac les
Ġhe ir
Ġdestroy er
Ġprofess ion
ĠPri x
Ġam ateur
ĠDar win
Ġimpro vement
ĠPet ers
Ġconf lic
Ġhand led
on ald
ĠA M
ĠD yn
Ġtex ts
Ġcop per
en cing
Ġin duct
Ġre in
Ġcon ceived
um ble
ĠGall ery
m ith
ĠB ald
Ġ10 6
ĠBl u
ĠHar bor
ĠSw iss
Ġrequire ments
ĠA ra
Ġn it
Ġsix teen
Ã¶ n
ĠIndones ia
Ġsam ples
ens is
Ġport r
Ġrefer ring
ĠSax on
T S
b al
Ġphr ase
u ating
it ely
Ġsh ares
Ġchar ity
ĠMosc ow
Ġthe ore
Ġinvest ment
Ġrespect ive
Ġtact ics
ĠJ TW
ĠJTW C
as m
Ġrec on
Ġredu ction
re hens
ed ing
Ġcle ared
ĠCamer on
ĠS om
et o
ĠK ate
ĠâĢ ¦
ult y
Ġus ers
Ġvot ing
Ġpark s
Ġcertain ly
ĠOs lo
st rong
Ġ16 7
Ġpra ising
Ġw orn
ĠIn v
ĠGe off
Ġphot ography
ĠPitts burgh
Ġs oph
Ġl ock
Ġ15 4
Ġgross ing
ĠP ic
Ġconn ections
Ġlab our
Ġconstitution al
M I
Ġex ceed
ax y
ĠPh ys
Ġrul er
Ġflow s
Ġspok en
Ġto ured
Ġaut umn
ethel ess
Ġcomm enced
Ġcommand ing
Ġqual ifying
Ġf old
ing ham
ĠC raw
Ġsign ature
ter y
av or
ff ield
Ġbl ind
Ġton nes
ĠT ow
Ġatt orney
Ġcontin uous
Ġshould er
Ġsurv ival
Ġtransport ed
Ġswe et
Ġunl ik
Ã «
Ġre organ
ĠTer ry
r h
Ġf asc
Ġn autical
Ġst uff
ĠU pper
Ġlegisl ative
O C
g om
Ġf isher
ĠA P
ĠBroad cast
ic ated
Ġun w
ĠAl i
ĠAl aska
Ġconf idence
e an
Ġex ists
ĠAnton io
Ġtax es
ĠWall ace
Ġenthus i
ĠM ond
Ġcommun ist
Ġpat ients
Ġopportun ities
Ġmel ody
Ġrock s
ĠS weet
ĠM ason
ĠR est
ĠM end
ĠP S
Ġt ested
Ġrel ocated
Ġcamp s
Ġcompet itive
ĠMay or
Ġrev olt
ĠSt ill
port ing
Ġdec e
ĠAfter math
h um
Ġreinf orced
Ġf ulf
ar io
Ġwithd rawn
ĠMicro soft
ĠCl ay
amb ers
Ġur anium
Ġm oon
p ot
ĠE mer
Ġind eed
ash i
ĠSy ria
Ġminor ity
Ġtransl ated
Ġfair ly
Ġn at
ĠG ot
Ġcommand ers
ill o
Ġexpl icit
ĠSte f
Ġrev ised
Ġtravel ing
ĠTra il
ĠP ast
ĠV el
Ġbl ues
min ster
Ġs overeign
Ġp airs
ĠS id
ĠEn t
Ġimp ression
Ġcart oon
ĠC ass
ĠH D
oc a
Ġman ga
exp ected
ĠO ri
ces ter
b es
ĠSec urity
ĠGr ace
ĠRich mond
Ġnob le
Ġcrop s
av ia
ĠAd v
Ġf ram
Ġun con
ĠSe e
Ġdispl aced
Ġenf orce
ĠR P
ĠEx per
Ġprogram ming
Ġextend ing
e ared
ĠA er
ĠE c
ĠShe ffield
Ġprom in
ut o
ĠOff icer
ĠLar ry
Ġcomp ound
Ġacc ord
Ġprincip les
ĠF r
od a
ĠSt ars
ang er
Ġam ph
Ġwar fare
Ġprov inces
w here
Ġch ron
ĠClass ic
ĠMalays ia
Ġdis char
uss ion
Ġexper iments
Ġprison er
Ġvo ices
is ive
as ks
Ġh ole
ĠH alf
urric anes
c ar
t es
y e
Ġp ap
Ġcar ries
ĠLu ke
ĠIsrael i
se ud
Ġext inct
Ġ189 5
ĠR u
Ġcharacter istic
Ġcul min
ĠDall as
Ġcon ce
Ġdist ant
Ġlearn s
ĠT ai
ĠGu inea
Ġrepresent ation
Ġcat al
Ġmagn itude
ĠPict ures
Ġinterpre ted
c ott
Ġw onder
Ġc raft
ĠHer ald
Ġsum m
ĠJeff erson
Ġlight s
Ġrival ry
ĠT ogether
ĠO sc
Ġs ample
Ġrel atives
Ġmar ine
Ġappro aches
Ġn erv
Ġab use
ĠGame S
ĠF BI
um ph
ue z
ach ing
ĠSe ga
ĠJohn ston
ĠAust in
Ġvict im
l ad
it ious
Ġ17 1
Ġpract ical
ĠOff icial
Ġcycl ones
ĠBry an
ĠClar ke
z ed
ĠO wen
ĠPerform ance
ro oms
ut ton
Ġhe rit
ĠE ight
ĠCh ile
Ġshif ted
Ġmar ch
Ġtransport ation
ĠC yrus
ĠD aw
Ġcut s
Ġdispl ays
ĠM ix
Ġhe m
Ġwar nings
Ġrest ore
Ġlight ing
ĠW oman
ĠHe y
Ġsk ill
Ġblock ed
Ġburn ing
ĠFall s
Ġ id
ĠC S
Ġman s
ĠQu est
Ġth under
Ġb ull
Ġre hears
ĠA T
ĠE is
Ġmy ster
Ġjud g
ĠDef ense
ĠW ells
ĠO range
Ġch ore
Ġair ing
Ġtrad itions
ĠSte el
Ġreb els
Ġprepar ing
Ġpropos als
ici ency
ĠNe v
Ġparticip ation
Ġmedic ine
Ġs ings
ag s
ĠNe il
Ġgrad uate
Ġgirl friend
N C
ation ally
ĠStud io
Ġabs ent
ĠPars ons
Ġdist ricts
Ã ¥
um ped
Ġwe b
ĠPr iv
Ġscore s
Ġmultipl ayer
ĠS ac
ur d
ĠN ord
mer ce
Ġ10 2
Ġinterview s
ĠGre ater
Ġunlik ely
Ġp ier
Ġcon ven
Ġ12 1
Ġprot ests
Ġval uable
Ġestim ates
ĠArm strong
ĠL iter
oc ity
Ġsal v
Ġfilm m
ĠDesc ription
Ġbrill iant
ĠH av
est on
Ġr iding
Ġsal ary
ĠChel sea
Ġw ished
at ers
ber ry
ĠForm ation
Ġmaintain ing
Ġc reek
ong e
Ġpass ion
ĠDan ish
Ã ¢
l en
ah a
Ġinf l
ĠBrazil ian
ĠBegin ning
le ans
Ġinter vention
Ġcour ses
Ġdrum mer
Ġrecover y
Ġreform s
Ġa ft
ĠF isher
ĠAct or
Ġarg uing
ĠFour th
Ġcab inet
Ġf est
Ġcon tend
ĠGreat est
ĠMcK in
ĠY am
ĠR ena
ĠE ve
ĠQue bec
Ġpet ition
Ġcinem a
Ġrecur ring
Ġg arn
Ġcl ar
Ġrac ial
ĠE th
ĠAg ency
Ġgrand father
Ġbene ath
ĠKa iser
Ġaccur ate
Ġvulner able
ĠAm b
Ġup set
Ġcommunic ations
ĠR io
Ġdecor ated
ĠSp irit
ĠAuthor ity
ĠG a
az e
Ġkill s
Ġsignific ance
ĠN S
ĠE ff
Ġnumber ed
Ġadvert is
le te
Ġe ating
our ce
ach ute
Ġrele g
Ġdivers e
Ġstat istics
ĠCat hedral
Ġtow ers
ĠConstant in
ĠS alt
ur i
ĠI l
ĠL ink
as er
Ġval id
ĠG ay
ĠPl ant
ĠSus an
Ġspons ored
Ġsquad rons
ĠV ers
Ġc ant
Ġcl othes
ose xual
ĠRe ich
Ġpar as
Ġ Ð
ĠOr leans
be at
Ġshall ow
Ġans w
Ġh ind
Ġsur ve
Ġapplic ations
Ġun expected
i ar
Ġto ler
ĠI van
ĠP oly
Ġste ep
ĠJ unior
ab ilities
Ġsh ock
Ġsac rif
ĠGlob e
ĠUt ah
er ver
ut or
ĠK ane
Ġcons olid
Ġ15 8
Ġeff icient
Ġ186 1
ĠCult ural
M E
Ġinc lusion
Ġair line
ĠHar old
Ġlast ing
n t
land ers
Ġfac es
Ġmor ph
w right
it ate
ĠC BS
ip ped
Ġi P
Ġess entially
Ġans wer
ĠS ug
Ġ188 9
ĠSerb ian
ot ing
Ġsurpris ed
Ġsum mit
ĠFI FA
Ġt ale
Ġm ate
uck er
Ġp m
Ġm ood
Ġg ender
ĠSc ar
ĠM I
Ġj et
aff e
Ġdeep ly
AT O
r ary
Ġchart ed
Ġemot ion
Ġcivil ians
Ġl iner
Ġch ronic
ĠProv ince
Ġ16 1
Ġpot entially
Ġrat io
ĠPan zer
Ġbeat en
ĠMu hammad
her s
Ġ189 4
ĠNew ton
Ġdra fted
Ġsusp ic
Ġgra ve
m n
or ia
Ġf ate
ke eper
Ġman age
Ġthe ories
lev ard
re ated
Ġh o
anc he
Ġ100 0
Ġbeaut y
ash a
Ġmer ged
ĠStu art
Ã© t
ĠRepublic ans
Ġdanc ers
aid en
Ġ16 2
Ġcr imes
d ess
Ġd ense
ĠS out
Ġbe ating
ĠMin or
ĠConst antine
Ġseg ments
Ġh ills
Ġ11 3
Ġproport ion
Ġto urs
ĠT yler
op p
Ġprocess es
Ġdem o
Ġsent ence
Ar thur
Ġmer c
v et
ik o
Ġdesc ent
Ġsw it
cast le
ens on
Ġ189 1
Ġd ual
ĠP ok
Ġsc r
Ġreact ions
Ġimplement ed
ons in
ĠFer r
ĠBuff alo
ĠF ighter
ĠIn s
ak h
Ġsculpt ure
ĠPict ure
Ġpersu aded
Ġherit age
Ġb ell
ĠYou T
ĠW isc
oc ation
Ġfund ed
Ġsout heastern
Ġman ip
ĠOr chest
Ġb oot
Ġd im
ĠPro duct
ĠIndones ian
Ġaccommod ate
Ġ rib
ĠB es
Ġalt itude
Ġcol ors
Ã© s
ĠTy phoon
Ġcolumn s
ĠYouT ube
ĠT ang
Ġev ident
Ġadm inister
Ġstruct ural
ĠCard iff
ĠApoll o
Ġw ine
ist ent
Ġfollow ers
ĠAm endment
Ġpresent ation
Ġagricult ure
ĠF ull
Ġfe ared
Ġgold en
Ġcompl ained
Ġp ip
ap ing
Ġâ ģ
Ġadd ressed
Ġrequ iring
ĠX II
Ġsail ing
her ic
Ġ15 6
b orn
ĠAl t
Ġ189 2
Ġtrib e
Ġpro of
Ġdev oted
Ġre join
ĠS ultan
Ġd warf
Ġ13 5
ĠW a
ĠQu ar
Ġtru ck
bo ards
Ġobs ervation
Ġori ented
ĠSymph ony
Ġn urs
Ġ18 00
Ġrece pt
ys elf
Ġinteract ion
Ġf ame
ĠH ad
ĠD ays
ĠWith out
Ġbreak s
ĠHun ter
ĠA A
Ġinter medi
ĠMc N
Ġtri ang
st s
Ġoper ates
ĠWisc onsin
Ġ24 0
Ġer ror
ĠReg ister
ĠCons ervation
ĠJoh ann
ĠK yle
Ġconf usion
Ġsuper st
Ġkn ee
ĠBurn s
usal em
ĠG round
ri fic
Ġj ack
Ġwrit ings
Ġjud ges
Ġpregn ant
Ġvoy age
is ons
ĠBrook s
ĠM all
Ġsudden ly
g ie
Ġc ards
Ġp ink
ĠS ox
Ġg ene
ĠW onder
ĠUn til
ĠElect ric
Ġmyth ology
Ġkid n
Ġre ct
ĠA ber
Ġbe ars
ĠD anny
ock et
Ġext ensively
Ġquar ters
osa urs
Ġholid ay
ĠW alt
Ġjurisd iction
ĠR uth
ĠHe b
Ġadv ancing
Ġop ens
Ġdiplom atic
n els
ĠC avalry
Ġcomment ing
Ġresear chers
ĠS ection
od ed
ious ly
osp el
ĠIslam ic
Ġt ension
ĠP ant
ul us
oth y
Ġâģ Ħ
s or
Ġth rown
ĠH ope
ĠK id
iz er
ĠMet ropolitan
Ġemb arked
Ġcateg ories
m aster
ĠN ature
Ġ15 3
ĠAct ress
H S
Ġs ized
ro b
Ġm ud
ant ed
ĠJer usalem
Ġhighlight ed
ĠS ide
ĠP rest
Ġsu gar
ĠF itz
ĠAtt orney
l on
Ġf ert
ĠT itan
cl iff
ark s
Ġkn ocked
Ġequ ally
Ġstat ements
Ġdro wn
Ġphys ics
ĠJust in
s burg
Ġto oth
am ount
Ġg aining
ch a
Ġag es
Ġsimilar ities
ĠLeg isl
Ġchalleng es
ur st
im p
Ġass um
ling ton
ĠAir lines
Ġsent enced
ĠS onic
qu est
Ġinf rastructure
Ġprincip le
ĠB ible
ĠG ang
Ġstud ying
en os
ĠTr ade
ĠBo eing
ĠâĤ ¹
ĠM eth
Ġr ivals
ĠAb u
Ġdisturb ance
ĠSt art
Ġman if
ĠEd ition
Ġlif etime
ĠEx ecutive
Ġg ift
ĠEn v
ĠGr ade
Ġ188 8
Ġgard ens
Ġor ange
Ġoverl ook
Ġg h
Ġconstit u
Ġunivers al
Ġtradition ally
at ched
ĠS ud
Ġloc ally
Ġvar iation
Ġdiv orce
ÃŃ n
Ġr ings
Ġfe e
ĠSch um
Ġeduc ated
ĠM ind
ĠB ased
ĠBar nes
ĠPat ri
th odox
Ġdeal ing
Ġwars hips
p ine
ch i
Ġpred ators
ĠCr us
ĠB ert
ĠU nd
Ġexpl aining
Ġt ies
ed ia
ĠN as
ĠSe an
Ġsw ord
Ġbound aries
Ġsp awn
Ġres olved
Ġpri est
Ġrecru ited
ancell or
ĠT u
os ph
ĠC emetery
ĠIndepend ence
ĠW es
ĠMil es
Ġdocument ed
Ġstret ch
Ġempt y
ĠT rad
ĠB ud
Ġen abled
ph an
ĠSat urn
Ġt ape
ĠBar on
Ġ188 5
uls ion
z ing
ĠU C
omet ric
Ġfor b
ri ft
Ġse as
Ġrece ives
ĠMont gom
ĠTur key
ĠRog ers
ĠMontgom ery
Ġsettle ments
Ġweaken ing
Ġn aming
ĠCent ury
Ġconsider ably
Ġdiscont in
p iece
ĠS yn
Ġhost ile
Ġvill ain
ĠMac Arthur
Ġl ift
ap le
Ġsc re
ĠLe af
Ġresc ued
Ġtask ed
n i
Ġ urg
Ġcommerc ially
Ġtrav elling
Ġgarn ered
ĠF act
Ġsup ern
ĠSc ots
Ġinvol ves
ĠCont rol
un ning
ĠChrist ians
back s
Ġbenef its
Ġtick ets
ĠI cel
Ġsm oke
Ġhel ps
Ġexpl ore
Ġcr ashed
Ġ Ï
Ġcl iff
Ġsub stitute
Ġvolunte ers
Ġash ore
Ġc ry
Ġd imin
ĠF il
Ġass ert
Ġgu y
Ġhous ed
ĠC P
Ġst yl
Ġst rand
Ġpit cher
Ġopt ions
Ġ97 8
ĠSher man
Ġin ning
ĠP ul
ĠW inn
Ġfle x
ÃŃ a
Ġescort ed
ĠT oy
Ġdis order
ĠLe v
Ġdep icts
ĠMov ie
Ġconcur rent
Ġd ying
ri en
Ġsp ar
ren e
Ġdet ect
ĠSte in
ĠMid d
ag ers
l ights
ĠPier re
c ut
u ters
w ald
ĠA ges
Ġep ic
Ġdo ors
ĠMan agement
Ġcirc ular
Ġbat ted
Ġconflic ts
ĠJud ge
ĠBalt ic
Ġconcer ning
Ġprote ins
h ill
Ã© n
ĠFl ore
Ġelabor ate
Ġinn oc
Ġdin ner
Ġv ig
ĠRe f
Ġhar bour
ĠIcel and
Ġre ass
ĠC er
ĠK rist
Ġver te
Ġ11 2
Ġpurs ued
Ġpurs uit
t ains
ov ak
ĠBe h
Ġcollect ions
Ġimprison ed
ĠT ourn
ĠC e
ĠB ranch
ell ar
gg ed
Ġbor row
É Ļ
Ġt el
ĠP as
ĠF ern
ĠTh ames
ĠA ren
ard o
ĠSp ider
ann e
Ġgod s
s a
Ġf ron
Ġn ut
Ġteam mate
Ġauthor ized
ĠBarb ara
Ġf ra
Ġin hib
ol ar
ĠF ish
Ġ14 5
Ġopp osing
Ġfavour ite
Ġvirt ually
u ction
ĠB ask
ĠF ight
ĠF low
Ġrev ival
ĠAgain st
ĠN eb
Ġtem po
Ġcompet itions
ĠRom ney
l ane
Ġc am
Ġp ill
Ġed itions
ĠReg ional
Ġportra it
Ġevent ual
Ġ186 5
Ġmanufact uring
ĠHeavy weight
ĠAt hens
Ġdra in
Ġmix ture
Ġr amp
Ġchem istry
ĠRepresent atives
Ġc ensus
ou rag
ac o
ĠHe arts
Ġpolit icians
Ġvel ocity
a o
Ġcon j
Ġrenew ed
ĠCh ad
ĠZ one
Ġhand ling
k h
ĠC row
Ġl iver
ĠH unt
Ġscreen play
Ġbelief s
Ġst ones
ĠCom edy
ĠRe agan
ĠEv il
Ġveter an
Ġr ushing
Ġur ged
ĠC ode
ĠM ang
Ġch ase
Ġab road
Ġ15 9
Ġ11 7
Ġsusp ected
Ġle af
Ġun ve
Ġexam ination
Ġunivers ities
Ġl aps
ĠN ancy
ĠN ATO
Ġsp ur
Ġc able
ĠAn y
ĠIn vest
Ġc attle
el ing
Ġcapt uring
Ġparticip ants
in ery
ubl in
Ġprom ise
Ġposs ess
Ġcong ress
Ġremember ed
ĠF ace
Ġinter ven
rid or
Ġpromot ing
Ġst olen
ĠRe port
Ġmed als
Ġrend ered
an im
and o
are st
ĠTrib une
is ition
ĠNov a
z o
on ation
ro e
Ġcol ours
Ġtra pped
g ow
m o
ĠT ru
rib le
Ġthere by
Ġtrack ed
Ġbombard ment
Ġinher ited
Ġtra iler
Ġdecre ased
p oint
Ġc ow
Ġv ital
Ġapp ly
Ġorgan isms
ĠErn est
ĠG ran
Ġt aste
Ġs or
Ġl oud
ot ion
Ġshark s
Ġpro x
oc c
Ġ11 4
Ġ11 8
Ġ45 0
Ġaccident ally
ĠPortug al
it ic
ĠS af
ĠD raft
Ġcom ics
ĠMar ines
Ġpos itively
Ġcost ume
ĠConstantin ople
oc al
Ġprot otype
Ġtiss ue
Ġdec ay
ĠNew castle
Ġinv aded
er ts
Ġceleb ration
Ġinh ab
Ġoccas ional
Ġju ven
ĠB right
ob a
Ġwar ned
Ġcompos itions
Ġs av
ĠH as
ild a
ĠPerson nel
ĠPet e
ĠCharl otte
Ġra nd
Ġhop es
Ġble nd
is an
ĠB eth
Ġra ins
l imin
m ont
ĠW ed
ĠEd die
Ġbatter ies
ĠJos Ã©
ĠM i
ĠGl as
ĠMag ic
Ġlink s
ĠJ oint
ri or
rest rial
Ġhop ing
Ġevac uation
Ġvari ations
ĠAff airs
Ġm aps
ĠC inem
col m
Ġanticip ated
h ou
qu er
ĠK on
ĠGib ral
id ia
ĠY outh
ĠSh ah
Ġtorn ado
f ly
Ġd ust
ĠH om
Ġup coming
Ġ186 4
Ġ ib
ĠC ryst
ĠLabor atory
Ġhoriz ont
Ġl augh
Ġn ose
ĠCorn wall
ĠEnv ironment
ick ing
Ġmark ing
ĠOther s
ĠMer ced
ĠLiber ty
Ġb omber
am pton
ĠChap el
b ing
v o
ĠS aw
ĠV oice
Ġgu ests
Ġgen u
Ġboy friend
á º
Ġs inking
Ġre ver
Ġdo zen
ĠE RA
ov ic
Ġsc andal
Ġimp ressive
Ġsepar ation
Ġaccess ible
ĠFre edom
Ġf ires
ro gen
ĠA L
Ġind igenous
ĠAg u
Ġeas ier
Ġlabor atory
ig ious
Ġprov isions
ĠFilm ing
ul um
ass y
Ġnickn ame
ĠL ower
ĠV ick
E R
ĠT erm
Ġr ugby
ep s
ĠS ic
ĠV o
ugh t
Ġaff ord
Ġthreat s
Ġdepend ent
ĠGibral tar
a uc
ĠT ree
ĠG on
ick en
ĠMal colm
Ġavo ided
or f
ag les
Ġbi ological
ĠMeteor ological
he ld
Ġsupport s
Ġpolit ician
ĠFriend s
D I
Î ±
ĠB apt
Ġhand le
Ġvolcan ic
Ġf ed
Ġl ighter
ĠM embers
Ġprog ressed
ĠKenn eth
Ġparliament ary
Ġrand om
Ġtr unk
Ġconsum ption
Î ¿
ĠArmen ian
Ġthe rm
ĠC hester
ĠC ena
art ime
ort ed
Ġdefend ers
en berg
ĠD J
Ġne p
ail ing
ĠLe ices
ats u
ĠC ase
Ġform ula
ĠX X
Ġbi ography
ĠProtest ant
Ġf ier
Ġdep uty
Ġhy per
Ġrestrict ions
am ics
Ġimp osed
Ġel d
Ġtru ly
ĠBou levard
Ġcorpor ate
ĠC and
ĠD uch
pt ic
Ġf les
ĠM ult
v ar
Ġc ash
Ġd a
Ġus age
ĠOsc ar
ĠC inc
ĠB ark
ag g
ĠTh an
Ġmurd ered
ĠOrchest ra
le m
am ine
ĠEn ergy
Ġlic ense
ĠÄ Ĳ
ĠL P
ia h
Ġprodu ces
Ġmix ing
Ġoccur ring
ĠAnt ar
g Ã©
Ġto xic
ĠS kin
ĠTh r
rack s
chang ed
ĠPed ro
ĠIsa ac
Ġin e
ĠB ears
ĠP eng
Ġnot iced
Ġeast ward
Ġcust omers
ĠChamber lain
Ġw ound
ĠM V
Ġac re
Ġpartic les
Ġdread n
ĠAthlet ic
Ġlawsu it
ĠT ake
ĠB reak
ĠD ublin
Ġcont racts
iel der
ett a
op les
Ġ13 1
Ġ186 2
d ed
all ing
Ġex ile
Ġpl ates
Ġtim ber
Ġp or
ĠA ction
Ġab b
Ġ ãĥ
os y
Ġmet ric
Ġkill er
ĠGu ild
ach t
Ġspec ulation
Ġcat hedral
ĠCare er
ĠCh air
ĠBrad ley
Ġtouchdown s
heim er
Ġnep hew
ĠZ ero
Ġengine ers
ĠSe x
Ġrel ation
Ġord inary
Ġw ake
Ġcho ir
Ġang ry
Ġpre st
ĠCycl one
ĠAl tern
Ġ10 7
Ġdeb ris
ĠRo om
Ġdepict ing
Ġdisappoin ted
j u
Ġas ide
Ġindust ries
Ġintellect ual
Ġhe nce
Ġundert aken
ĠTourn ament
Ġ å
Ġf ab
Ġdevelop ments
Ġconv icted
ĠCont inental
Ġkil og
Ġencoun ters
ĠW atch
emb le
Ġthreat ening
ĠGab ri
b ach
over ed
ph al
ĠSl av
Ġign ored
Ġconqu est
Ġcomplic ated
Ġthunder storm
Ġc u
Ġstri kes
Ġvic inity
Ġs tern
Ġm ounts
Ġly rical
ĠArch bishop
Ġmechan ism
ĠP el
ĠG lee
os ion
Ġdecre ase
h l
it ime
Ġun e
ĠMet ro
Ġthrow ing
Ġrevolution ary
f or
al g
Ġterrit orial
Ġchampionship s
umber ed
A N
iz z
en burg
Ġm it
ĠV illa
Ġconf ident
Ġel ite
Ġhuman ity
ĠSpring field
Ġ15 7
ĠCol lection
ĠLu ft
ĠSerb ia
Ġw ard
ĠL S
Ġch rom
Ġrem in
Ġbre ast
ĠOr d
Ġexhib it
ĠAlbert a
ĠK in
Ġ22 0
Ġconvers ation
A P
ĠF uture
Ġreal istic
Ġlack ing
ĠTom my
ĠCinc inn
it ol
Ġcont acted
Ġpres erve
on ial
ent ieth
ĠM ann
ie g
Ġmet re
Ġconst antly
Ġhelic opter
Ġa rose
ic ing
Ġm os
ol ia
Ġsusp ension
Ġfocus es
ĠMarsh al
Ġbo ost
Ġmamm als
Ġinaug ural
it ure
Ġp enn
ĠP ros
ĠPl ace
Ġpost s
ĠMich a
Ġfac il
ĠStud ies
Ġ184 0
ĠG ates
ĠJo an
Ġent ert
ĠChurch ill
ĠTai wan
Ġg if
ĠV eg
ĠShe p
Ġfarm ers
Ġpredomin antly
ik ed
uk a
Ġvot ers
b el
en cer
ĠT ir
et ary
Ġst im
Ġpat ri
limin ary
Ġass erted
ĠMusl ims
Ġin fer
om ed
Ġdes per
Ġdiam ond
Ġto ols
ell ers
rol led
oir s
ĠFried rich
Ġinf ection
ĠMalt a
H g
as p
Ġun t
ĠYugoslav ia
ĠT int
ĠP ay
ĠJ ake
oc ol
ĠK az
Ġrele asing
Ġphot o
Ġcollabor ated
Ġthor ough
ĠR ear
ĠAnc ient
Ġth ro
ĠC anu
ran k
Ġfe athers
Ġabsor bed
ĠWag ner
ĠC het
Ġpat ient
Ġremov ing
Ġconspir acy
Ġm ad
Ġh oles
ĠH ood
ĠH ull
ĠU k
Ġcent ered
ĠRe ed
Ġpen insula
Ġt une
ĠM aine
ĠR ound
ort ion
ĠSh iva
ĠWat ers
quir y
ig a
Ġrelie ved
ĠE C
Ġap olog
ew ork
Ġcast les
isc her
Ġcomp iled
Ġgrow s
ĠRob in
Ġillust rated
Ġus er
Ġexplan ation
ĠF ly
ub ble
ĠPark s
Ġknow s
Ġcancel ed
ĠCincinn ati
Ġp ig
ĠCom ics
Ġroad way
ĠNorm andy
Ġis n
Ġ12 6
Ġspeed s
Ġindepend ently
ĠBur ke
ĠOl ivia
Ġsust ain
ĠD ud
Ġres id
Ġen orm
Ġret rie
enn ial
Ġ13 2
ĠHis pan
Ġsit uations
ĠAngel ou
ĠE sc
ĠSh ield
reg ular
ĠAfghan istan
ĠM aced
au ge
Ġarm oured
Ġple ased
ĠVII I
Ġant ib
Ġf ant
ĠCh ang
Ġshe ep
ring e
Ġbow l
Ġbreed s
ĠC ort
Ġen com
ah l
ĠAll iance
Ġmar ched
ĠVeg as
as ury
ĠK ill
rit ic
Ġ11 9
Ġ188 7
m usic
ĠS or
ĠL ords
Ġoff shore
rel s
Ġl over
ĠB rid
ĠMad ison
o i
Ġa est
Ġl ib
ĠEd mund
Ġout standing
ĠTw itter
Ġp aying
Ġcl ergy
Ġlay ers
ĠPok Ã©
ĠE ld
Ġare na
Ġpros per
Ġbl ast
Ġcould n
u ber
Ã ´
ĠR ush
Ġ186 3
Ġvary ing
Ġm ild
Ġclos ure
ĠCons ervative
h all
o om
Ġexp anding
Ġview ing
Ġdisapp eared
ĠRevolution ary
Ġlocomot ives
ul ates
Ġbut ter
Ġback st
Ġsent iment
Ġ188 6
ĠGreg ory
£ o
ic ular
Ġm ask
ĠS ad
ĠK ra
Ġgen res
ĠForm er
b u
ĠL ud
Ġper c
over ty
ĠTechn ology
Ġcol ored
Ġdro pping
g us
ĠLe eds
f ound
ĠJ NA
Ġreport ing
h art
av an
Ġsuggest ion
im ony
rib ution
Ġceleb rate
umber land
in stein
ĠCo al
ĠSer ge
ĠMerc ury
ĠSchum acher
W A
ĠH us
Ġat op
Ġsp ir
iz ard
ane ous
Ġnever theless
ĠBrook lyn
Ġb apt
ĠH ubb
Ġfl our
Ġreg ulations
Ġfung us
ĠOr ton
Ġsubmar ines
ĠML B
Ġinduct ed
g ary
ĠC ou
ĠC ut
ĠC ond
ac ular
Ġg rid
ĠD ennis
onn ie
ĠJul ian
Ġa qu
ĠN ation
ip her
Ġox id
Ġas c
ission ed
Ġwitness es
ĠC ry
Ġattract ion
f eld
Ġ ËĪ
in ated
ĠT alk
ĠS oph
ĠB urg
ĠR us
Ġcon ced
Ġra b
Ġant hem
ĠC hem
Ġsub mer
Ġfac ulty
ĠÃ ī
ĠHel en
Ġswe pt
A L
Ġe agle
ish n
Ġrep orter
Ġcompan ion
ĠPrinc eton
ĠTig ers
le ted
ĠA ub
Ġrem ote
Ġin Hg
Ġret reated
Ġmon it
Ġposition ed
ĠBrown s
Ġrom ance
ĠMcKin ley
z es
Ġa f
om on
ĠM ut
ĠL amb
Ġrep ris
ĠOrgan ization
Ġp seud
ĠV ern
Ġorgan ic
Ġt ent
Ġs ulf
ĠN athan
Ġbl amed
Ġpublic ity
Ġfort ifications
get t
Ġvers es
ĠMon th
Ġpark ing
ĠHistor ical
Ġst ored
y an
od ium
ĠLe o
Ġfund amental
f low
Ġshel ter
Ġst ability
Ġwh atever
ĠMus ical
Ġ188 4
Ġtarget ed
ĠGh ost
Ġcondem ned
ĠHubb ard
b ie
ĠSt al
Ġm ail
Ġann ex
Ġcur ve
ĠSm ack
en ess
ĠBar cel
Ġfocus ing
Ġcorrespond ing
Ġfoss ils
Ġfer ry
p in
Ġl ung
ust ers
Ġrec ruit
he nd
Ġf ract
Ġg entle
Ġprog ressive
ĠSte am
y d
Ġno ise
Ġflow n
ĠNAS A
r ity
qu al
Ġtorped oes
Ġir regular
Ġpreced ing
ĠPolit ical
ĠF ather
Ġ10 3
Ġdet ected
let t
Ġsw ing
Ġro ster
Ġconf used
Ġdr unk
Ġdisb anded
ĠGlas gow
ed a
ĠIs le
ĠOper a
Ġment ions
ĠCanu cks
Ġf ault
ĠIs ab
Ġconv ince
Ġmel od
ĠM ak
ĠP ick
ĠN ass
Ġch a
Ġenc ourag
Ġresign ation
c ell
ĠT ests
ĠIn side
ik i
ĠDev il
Ġtele phone
aren ess
Ġcru ise
Ġchalleng ing
ĠN ad
Ġreg iments
Ġmach ines
Ġmagn etic
Ġb ore
Ġdirect ing
Ġreb ounds
ĠHol land
Ġbr ings
ard ed
Ġqu oted
Ġins urance
Ġwin ners
aud ed
Ġcalc ulated
Ġsole ly
Ë Ĳ
Ġterm inal
ĠSol ar
Ġr ice
ĠSt rong
Ġsc rap
Ġstud ios
ĠAust ro
Ġtour ist
ĠPhill ies
ĠFif th
ĠThe odore
ig ation
ĠR I
ĠIn sp
ĠMont ana
Ġd iversity
Ġtri umph
ĠMill ennium
ĠHer bert
Ġwor se
ĠU B
Ġthan ks
ĠCelt ic
Ġt ap
el in
ew ise
ĠSe b
ĠWest minster
Ġjud icial
Ġcreat ure
Ġconcept s
ĠDen ver
ĠN am
ĠK il
Ġfav ored
Ġdark er
ĠBC E
on so
is k
Ġh ide
ĠM orning
Ġro uting
ĠTint in
v or
av ian
ros cop
Ġscholars hip
ĠCE O
Ġn ice
ish ops
Ġro tation
amp a
Ġ187 7
ĠBask etball
Ġ12 9
Ġhistor ically
in ter
Ġm yself
oura ble
ĠAdvent ure
Ġf o
ĠM ig
ĠW el
Ġ13 8
Ġ23 0
Ġround ed
Ġprompt ing
ĠEp is
Ġc emetery
Ġg ear
att y
Ġ187 6
Ġc otton
ĠB our
Ġag encies
over y
hen tic
Ġ12 2
Ġz ero
Ġexam ined
Ġstead ily
Ġgh ost
Ġj ersey
Ġconf ig
ĠEx pl
Ġcommit ment
Ġreconst ruction
ĠMerced es
ĠR av
Ġj ew
ĠBar n
ĠBra h
ul u
ĠY ard
Ġ11 6
Ġtro op
Ġbattle field
nd a
ĠP oe
ĠO cc
lud e
Ġacclaim ed
i ors
Ġm asc
ĠThe ater
Ġtri o
ĠGl ou
Ġmot if
ĠBulgar ian
Ġspac ecraft
ĠNev ada
Ġw artime
um i
Ġsh aring
ĠAt hen
work s
ĠC ox
ĠR ivers
Ġmess ages
ĠAlb any
Ġgust s
ĠAddition al
ri ans
Ġ13 4
Ġagre es
Ġball s
Ġmeas uring
ĠSal v
ĠRon ald
s is
ĠC any
ac er
Ġinc idents
Ġgu ards
Ġpost p
ĠPer cy
Ġconn ects
Ġwalk ed
ĠGoth ic
Ġmonaster y
at isf
ĠS ri
ĠS quad
Ġdec isive
Ġpres ents
Ġpost er
Ġconduct ing
Ġelev ated
Ġamph ib
ĠL ed
Ġref uses
Ġrad ius
Ġwalk s
ĠCarl os
ĠCur rent
l ined
Ġdist inction
ĠCa es
Ġelig ible
Ġscre ens
om ical
ĠB ris
ĠH ok
Ġthem ed
Ġcur ved
Ġflow er
et a
Ã¶ r
Ġkilomet ers
ĠOtt awa
Ġcloud s
ĠTerrit ory
Ġlin ear
Ġproclaim ed
Ġo ct
Ġlo ose
ĠR osen
ist ical
Ġtr ig
Ġconsequ ence
Ġreven ge
M usic
b i
at on
Ġh osp
Ġcon vey
Ġex terior
aul ts
Ġaccompl ished
Ġto ugh
Ġst all
op ard
Ġk ids
ĠV erm
á» ĩ
ar ians
Ġe cho
ĠP ack
ett es
Ġ183 0
Ġinteg rated
h t
ak u
Ġfin est
Ġarg uments
Ġphys ically
Ġop ined
Ġrit ual
c ont
ĠCh uck
Ġreb el
ĠB erm
ol an
Ġcom ed
iz ers
Ġcent imet
Ġcreat ures
Ġparticip ating
Ġc osm
Ġl akes
un ge
ĠMe ga
at ar
ab a
ĠMar l
ĠAb ra
Ġtheat ers
Ġven ues
arth y
ĠPokÃ© mon
ĠBarcel ona
ĠD uc
if fer
Ġsc out
Ġair borne
Ġrun ner
Ġ187 5
Ġencom pass
Ġin tend
ĠF un
Ġsp ell
ĠCard inals
Ġmart ial
ĠMicha els
ĠT as
ab ad
ass ic
ĠAr c
Ġind irect
ĠMil an
it ars
ig hed
Ġun h
Ġinstruct ions
D own
ĠCh an
og s
Ġcan on
Ġins uff
Ġdeliber ately
Ġto uc
Ġsp ots
ree ks
Ġdem ographic
ĠMet ac
Ġcerem onies
ĠH i
Ġch ann
Ġ12 8
ĠPark way
Ġwid th
Ġenh anced
Ġmans ion
Ġintermedi ate
Ġremin isc
se ason
Ġy d
ub s
Ġproper ly
Ġcontrib ute
Ġcompliment ed
ĠW is
ĠEn ix
ĠCol in
Ġless er
ĠSmack Down
s ch
Ġcont rad
Ġpr ince
ĠPar aly
ĠOper ations
Ġtel esc
Ġg ram
Ġpe oples
Ġmar g
Ġposs essed
ĠRay mond
Ġprepar ations
Ġextend s
Ġweak ness
ank a
Ġvar ies
Ġtransform ed
Ġheav ier
Ġbor ough
ĠHend erson
ĠDra ke
ĠF oster
ĠHe in
Ġmin isters
ĠArch ae
ĠCirc le
Ġh arsh
Ġon wards
Ġsouth western
Ġbow led
Ġprosp ect
in us
ĠR BI
ĠEm ma
Ġ188 3
Ä «
ri um
Ġrem ake
ĠSp eed
ĠRoman ian
G M
as ia
ĠB od
Ġsens itive
Ġassass ination
ĠManu el
ĠMidd les
he rent
ĠW ings
Ġout come
Ġco aches
Ġ188 1
r ush
Ġâ Ļ
Ġplay able
Ġachie vements
Ġiniti ative
ĠSc iences
ĠComp uter
Ġopt im
Ġveget ation
Ġa ided
Ġcontin ental
Ġcrit ically
ĠWe ather
Ġupd ated
H C
Ġh urt
Ġhom osexual
Ġf ru
Ġdis abled
ĠSh in
Ġtrans mission
ĠAng le
ĠBel ie
ĠT otal
Ġro ok
Ġall ied
ash ire
l ake
Ġw it
ar us
Ġb in
ĠR NA
Ġlog o
ĠDiam ond
y c
ĠV oy
ator ial
iron ments
Ġpropag anda
ĠParaly mp
ag i
ĠAl am
ĠBl air
Ġconsider ation
ĠVen ice
Ġmo ist
ch w
ĠNorth west
Ġrid er
Ġvari able
Ġdepos its
ĠJama ica
Ġdep iction
Ġtour ists
ĠFer din
Ġconscious ness
c ore
ĠB ass
ĠF a
Ġland mark
app a
Ġ186 9
Ġestim ate
Ġemer ging
Ġsail ors
Ġexerc ises
Ġre h
Ġmon ster
ĠRichard son
ĠB ody
Ġun anim
act ic
ĠUn it
Ġwork er
Ġdam aging
ĠComp osition
ĠCont em
ĠPow ell
Ġsubt ropical
Ġautobi ography
Ġto m
ĠD elta
ch t
Ġ15 1
ĠCal gary
alt ies
ĠA qu
ĠDun can
Ġorchest ral
ĠLanc ashire
Ġmunicip al
Ġarchae ological
ĠAren a
ĠI b
ri p
Ġse al
Ġsp ite
Ġnort heastern
Ġhon ors
Ġconsist ently
Ġpun ishment
Ġperman ently
ĠIs les
Ġenv ironments
Ġcompris ing
Ġlat est
Ġas cend
Ġst aged
Ġpre f
Ġrout ine
Ġb orders
Ġst om
Ġ186 6
Ġdoct rine
Ġep it
ĠSp rings
Ġreve aling
ĠVer onica
ĠC u
ĠR ange
Ġsum mon
Ġd ock
ri ages
Ġpres idency
Ġcar ved
ĠFl oyd
Ġcoach ing
Ġsearch ing
ĠPlan et
ĠP sych
Ġperform ers
ring ton
Ġachie vement
Ġjournal ists
ĠR if
ĠX I
Ġmanag ing
ĠMill s
Ġ75 0
ĠCar n
ĠMed ic
Ġdisp atched
Ġbelong ing
Ġunsuccess fully
Ġ ion
ian g
Ġprior ity
Ġpay ment
ij ing
ĠRod rig
ĠUs ing
Ġwitness ed
Ġdeleg ates
Ġmyster ious
Ġin put
Ġm arsh
ĠFran ces
ĠEll en
ĠCany on
t he
le x
id o
ĠP on
Ġcon fer
ĠCl oud
ĠHead quarters
Ġpsych iat
Ġenl ar
Ġcomple ment
Ġvers us
ĠBer g
Ġprevent ing
Ġreluct ant
Ġsil ent
ĠCons erv
Ġencoura ge
Ġod d
Ġfrig ate
ĠT ab
ĠP ra
ĠCraw ford
g or
Ġmil k
Ġvent ure
ĠCryst al
R S
z ig
Ġ12 4
Ġphilos opher
ĠInt ellig
Ġphenomen on
ĠT ib
Ġg ates
ĠF landers
ĠTe legraph
Ġarg ue
Ġlength s
st own
Ġan arch
Ġact ively
Ġce iling
ĠBut ler
Ġbelong ed
Ġdistingu ish
ĠPalest ine
B rien
om ys
ol ars
Ġst range
Ġpl um
ĠGro ve
ĠLeices ter
ĠP unk
ĠD j
arm a
Ġdisp uted
Ġswit ched
Ġm ant
ĠF ood
ĠV ic
ass ed
Ġexecut ives
Ġhypothes is
Ġp overty
Ġg est
ĠMar qu
ĠGu adal
Ġic on
or ic
is ations
as i
ad ows
ĠM ull
id ge
ra ined
Ġsh aft
Ġeight een
Ġ187 3
Ġmechan ics
Ġfin ance
ĠPl at
Ġexpl oration
Ġcor ruption
ĠAss ist
Ġaw areness
ĠM ile
Ġlist ening
bo at
Ġ188 2
Ġscient ist
ĠNew man
Ġdirect ions
Ġintrodu ce
Ġmyst ery
al ia
Ġm bar
Ġro ot
Ġcontrib uting
Ġexpect ations
T unes
ĠT ucker
Ġab st
Ġacc us
ĠS H
ĠF ur
ĠF ischer
Ġv amp
Ġr ational
ust y
Ġform ations
ĠBe ijing
Ġintern ationally
Ġ187 1
Ġadj ust
ec hes
ĠAn at
Ġship ped
ĠFilm s
ĠWat son
Ġo v
im mer
Ġgu itars
ĠReg ion
Ġ186 7
Ġobject ives
r ud
ĠBe a
ner y
Ġtem ples
Ġmolec ular
Ġdimens ional
Ġh oney
ĠP ly
Ġwh ales
Ġle agues
ĠWh y
rew s
Ġprocess ing
Ġproced ure
Ġs ib
Ġshe et
Ġmet als
Ġsurpass ed
Ġsubmer ged
ĠS yl
ĠR aid
Ġ20 2
Ġdes ired
Ġph osph
Ġimpro ving
ĠKe pler
Ġtrib ut
Ġnat urally
B O
as aki
ult ure
Ġadv ocated
Ġassoci ate
ĠMcC arthy
Ġoverwhel ming
ĠP ine
ĠK y
ĠTr ue
Ġpriv ile
Ġs aving
ĠL ore
ĠSe as
Ġrem ind
Ã ł
ĠTr uman
Ġdiscuss ing
Ġre op
Ġst aying
Ġcon vert
Ġun rel
ier ra
Ġele ph
ĠDes ert
ĠStand ard
Ġd ive
ĠH ass
ĠComm ons
Ġaccept ance
Ġload ed
Ġcompris ed
Ġabund ant
ĠDud ley
L A
ĠH il
ĠCom merc
ĠMal ay
Ġhorse power
Ġrequire ment
Ġcub ic
C O
ed ed
or ig
ist ocr
og g
ern ess
Ġt asks
ĠN ak
Ġres on
Ġcame o
Ġ187 8
ĠDep uty
Ã¨ re
Ġrefuge es
Ġh az
am ation
ĠV lad
Ġper f
Ġpart ners
Ġest ates
ĠEx ped
Ġcruc ial
w affe
ou ch
ĠM ail
im er
Ġ13 7
ĠAd ela
ĠMas ters
Ġr ushed
Ġblock ade
Ġnerv ous
Ġc ro
Ġg ran
ack ing
Ġj aw
ang ered
Ġexpl ored
Ġkey board
ĠSur v
Ġfrag ments
Ġgener a
Ġcollect ing
Ġcompos ers
Ġopin ions
ĠGib son
Ġnavig ation
Ġad equ
Ġgen es
Ġiron cl
ĠByz ant
ĠCult ure
Ġp ump
Ġm emb
ist ing
Ġspec ulated
Ġaut hentic
su ing
Ġresemb le
ut ely
Ġun re
head s
Ġchann els
in qu
Ġrep ublic
ĠCol omb
ĠTr inity
Ġi Tunes
Ġundert ook
ĠB ran
ĠSc he
ĠProfess ional
Ġperc ussion
Ġsuff er
Ġturb ines
G B
el ia
Ġst air
ĠE agle
Ġaver aged
Ġcomprom ise
th lete
Ġse eds
Ġphot os
Ġimmig rants
Ġb ars
ĠAl pha
Ġfem in
rehens ive
ic us
ut ter
ĠCl if
Ġpost hum
Ġhom eless
Ġhabit ats
Ġg am
av il
ĠK em
Ġass ets
Ġrep et
Ġsum mar
c our
l ia
un ar
Ġunder water
Ġdef enses
Ġcompl aints
Ġmanufact ured
R C
ĠM ick
ĠM obile
ĠM eyer
Ġwh ale
op ol
Ġen suing
Ġfact ion
Ġben ch
h o
re ction
en z
ĠA aron
Ġan ts
Ġman ages
ik es
ĠMon ster
ĠMeth od
Ġs ic
ĠL uther
Ġmet all
ĠApp ro
Ġsymb ols
Ġpsych ological
ĠWell ington
Ġreconst ruct
Ġles b
ĠBapt ist
ĠMetac ritic
y ll
Ġup s
ov es
amp ed
Ġrel ied
Ġcoast line
Ġdiss olved
Ġnetwork s
Ġconsequ ences
otyp es
w yn
yl um
Ġimpro v
Ġhonor ary
em ploy
ĠSh an
Ġland ings
Ġlength y
Ġabsol ute
ĠW rest
Ġcons ensus
Ġbu ff
Ġbr ut
Ġcontem por
Ġc ave
Ġg auge
ĠW ant
Ġfra ud
ĠLuft waffe
d i
m other
Ġadd s
Ġem ig
Ġult imate
Ġamb assador
Ġqual ities
ograp hed
igg ins
Ġreserv es
Ġpound er
ĠShel ley
Ġerupt ion
Ġint act
ug s
Ġsym ph
Ġgod dess
Ġloyal ty
ĠBerm uda
id en
Ġvar iant
Ġess ay
Ġprin ting
ĠUr ban
Ġf ears
ĠM C
ĠG enesis
Ġsign als
ĠMon roe
ĠTim ber
Ġpatrol s
Ã ª
us ive
th rough
Ġsing ers
ott o
Ġlem urs
f r
Ġo l
ol ith
ĠMach ine
Ġassess ment
Ġunve iled
ĠC M
ĠC ool
ĠH erm
ĠSh ar
ĠWood s
Ġdisapp oint
Ġinter f
Ġ186 8
Ġ187 2
Ġlif ted
Ġgross ed
ĠWol ver
ĠRP G
ĠAgu iler
Ġfles h
em a
Ġwe ighed
Ġ12 3
aur us
Ġrock et
Ġexplos ive
Ġdoct ors
Ġeld est
ĠMar x
lic ted
Ġteacher s
ĠOt to
ĠH at
Ġse ar
Ġar istocr
ĠHen ri
Ġemot ions
ĠVar ious
ĠSel ena
ĠAguiler a
E D
Ġd uck
ĠM om
Ġam id
Ġmill ions
Ġdel ight
ĠNot able
Ġbattlecru isers
ĠCh oice
Ġcomp aring
Ġspect ators
Ġinteract ions
ĠEngine ering
or ge
Ġo wing
ĠP i
ew ard
ov sky
Ġcl ip
end ar
Ġtw entieth
Ġtrad em
aun a
Ġliter ally
Ġenorm ous
im ity
ig o
ĠR ah
Ġpolit ically
Ġinsuff icient
ed ar
Ġh ier
ĠM k
Ġst abil
Ġch lor
ĠCh in
Ġsongwrit ing
Ġbats man
st ad
ĠE sp
ĠNew port
Ġeng aging
ĠFem ale
Ġhorizont al
ĠFl ames
Ġcost umes
ĠEll is
ĠDak ota
ir i
ĠF ab
ĠSt age
eb e
Ġinstruct ed
ĠM oney
Ġde alt
Ġrel ating
Ġappe aled
Ġrev ived
c i
Ġt ensions
ĠW ool
Ġr ally
Ġde als
Ġen rolled
iss a
mon ton
Ġdig it
Ġintellig ent
ĠCab inet
ĠMV P
ĠP ent
ĠR iley
Ġsu ited
Ġte lev
c ock
u its
Ġtri ps
Ġread er
Ġvocal ist
ĠChand ler
Ġbacter ia
ĠExped ition
ic he
st ar
ĠLe igh
ĠRena issance
ĠG az
Ġstr ings
ĠKn ights
ĠAdela ide
Ġrefere e
d am
ke ley
Ġsub d
ĠDr um
Ġbit ter
Ġinstrument ation
or us
Ġf rog
Ġst roke
ĠL ie
Ġsub ordin
ĠSoviet s
ĠWW F
Ġalleg ations
Ġincom ple
f orce
Ġl iv
ĠH anc
od on
ber y
ĠNe pt
Ġslow er
Ġinters ections
Ġgraph ic
ĠPhill ips
ĠFerdin and
Ġan x
Ġdecl aration
Ġdise ases
ĠGeoff rey
h and
n al
ĠC ome
ich i
Ġexhib ited
ĠMax well
Ġextra ordin
Ġreminisc ent
Ġc ats
Ġh urricanes
ĠS ans
ĠN L
ĠSc reen
ĠSur rey
Ġmush room
ĠM ol
Ġcl an
ĠHe aven
Ġwood s
ra v
olog ically
Ġterm ed
ĠThere fore
Ġwid ow
Ġchap ters
ĠVi ew
ĠCurt is
Ġmiss ile
Ġw ishes
Ġh ung
ot illa
ĠComb at
Ġinc red
Ġover come
ĠLe ad
Ġinvol ve
Ġet c
Ġgall ery
ĠMarc us
p ect
Ġ á
ĠW ald
ĠBar rett
Ġcoun sel
Ġdiscip line
ut onium
ĠCap ital
ĠMet al
Ġthick ness
Ġmist ake
Ġtact ical
ĠEs sex
Ġsacrif ice
ĠAbra ham
ĠF ellow
ĠSp encer
ĠMov ement
Ġdisl iked
ĠPly mouth
ĠP rison
Ġmod est
ĠRom ans
Ġquant ities
z i
ĠHe ath
Ġinter ference
ĠMad rid
Ġmathemat ics
Ġm isc
ĠR ight
Ġtrans it
ung le
Ġathlet ic
ĠS A
Ġsh irt
ĠâĢ ²
ĠFran co
Ġjoin s
Ġcult ures
ĠGameS pot
od ied
Ġrep aired
ĠBl ake
Ġrul ers
ĠBur ger
Ġshop ping
Ġh unt
ot he
Ġsh ar
Ġexp ense
Ġmach inery
Ġnom ine
Ġres ur
ĠPol l
Ġri fle
Ġpan els
Ġsuppor ter
Ġproceed s
Ġf inger
le nd
ĠT all
ĠH ond
enn e
Ġcirc les
ĠRes ident
ĠVi enna
Ġnickn amed
Ġsynd rome
ĠE qu
Ġass ign
w ind
Ġb ol
st and
ur ers
ul k
ĠSp it
Ġcontin ent
Ġfight s
Ġcal iber
ĠContem porary
Ġhe ct
ĠAd rian
ĠCont in
ĠBrig adier
Ġimport ed
kin son
ĠDaniel s
ĠBosn ia
ĠHanc ock
it ects
ĠA viation
ĠB ri
ops is
Ġcomment ators
Ġmig ration
ĠFlore nce
al id
Ġwas hed
Ġsp ores
ĠNor se
Ġfat al
ĠRel ations
Ġf are
ĠSp onge
ĠFl ood
Ġinterview ed
ĠAdmiral ty
Ġlocomot ive
ic ity
ra ine
ĠFer gus
Ġcust ody
ĠTas man
Ġg aming
Ġj oke
Ġflu id
Ġprox imity
O R
ĠT ales
ĠS ib
ĠB rew
ol o
im ir
Ġra w
ĠNob el
ĠB og
art ed
ĠAg ricult
Ġs ect
ĠArch itect
Ġbank rupt
Ġpron ounced
ĠPubl ishing
Ġredes ign
Ġm im
Ġbe er
ĠN um
Ġcont ested
Ġmolec ules
Ġcurren cy
at hetic
Ġal ly
ĠK ub
ĠGl ass
ĠJer emy
c ious
ĠS uz
Ġl ip
Ġunder go
ĠRe ading
Ġacqu ire
ĠTw enty
ĠJenn ifer
Ġmaneu ver
ĠBald win
id ay
ĠP ut
ik h
Ġz ones
ĠUs her
n ut
Ġt ong
Ġp uzz
ĠC C
ĠLe ban
ram id
Ġsuccess ive
Ġcur ves
ĠArk ansas
Ġa viation
ĠB ot
Ġall ocated
Ġdem anding
Ġflu or
ĠLt d
Ï Ĥ
Ġh atch
ĠM am
ast on
elf th
ash ing
Ġpop ulated
ĠHer gÃ©
Ġknow ing
ĠRoman ia
ĠArt icle
Ġmem ories
ĠMot or
p it
al ysis
ĠB ent
ur bs
ĠMan ning
ĠPrest on
f ront
x ide
ĠB uch
ĠL af
Ġun aware
ĠSh adow
ĠAd ri
Ġsepar ately
Ġ187 9
Ġflo ors
Ġgather ing
P S
l ass
ĠS uff
ĠSt ories
os ity
ri pp
Ġpre liminary
Ġpubl ish
Ġce ase
ĠBanks ia
Ġre ef
um ar
Ġdis gu
Ġinter rupted
Ġregard less
Ġd awn
ĠMcD onald
i ary
w ig
ĠJ G
ĠO w
ĠAll music
Ġdiscuss ions
ĠGar c
er ia
Ġg olf
Ġsc rapped
ĠP all
Ġpro ud
Ġper pet
Ġadv ances
Ġmass acre
Ġscreen ing
Ġcompar able
Ġdeploy ment
Ġninet eenth
p es
re z
ĠK es
ĠNew found
Ġnorth western
Ġtour ism
Ġfarm s
Ġdemonst rate
ĠElect ronic
ĠIndust rial
ĠId ol
Ġdiscontin ued
n an
ĠH ous
Ġ14 1
Ġdam ages
ĠMin ogue
gu ard
Ġeditor ial
Ġcyl ind
as se
ĠCh ase
ĠOr thodox
ĠPer th
ĠCap itol
Ġphot ographer
Ġinstall ation
Ġcyl inder
Ġch ord
Ġun rest
ĠEd monton
ĠChar acter
ĠStar r
Ġbill s
ĠMcC ain
Ġed iting
Ġdyn amic
Ġhal ted
ĠBeng al
ĠSkin ner
ĠT ask
Ġsub sc
ĠBow ie
ĠN av
Ġsub tle
ĠHawai ian
Î ½
Ġs ew
Ġp aved
ur se
ĠG rad
Ġprot ecting
ĠPort s
l ist
Ġan ger
ist ence
Ġseem ingly
Ġsubs idi
ĠLanc aster
t z
ath a
Ġreg ained
Ġ27 0
ĠKore ans
ĠTur ks
Ġhar bor
Ġadminister ed
Ġopen ly
Ġproject ed
ĠSing le
r ide
ĠL ogan
ĠIn g
Ġsport ing
Ġdescend ants
ĠNewfound land
S A
b us
m el
p at
Ġthe rapy
Ġg rain
ĠW inc
Ġinst ruction
ĠSen ior
Ġamb itious
Ġfunction al
Ġgrav ity
er ies
ver n
Ġcont racted
Ġup rising
Ġcitiz en
Ġlic ensed
Ġneighbour ing
Ġbare ly
ĠJ ur
Ġreg ist
ĠSp in
Ġcre ates
Ġless ons
Ġopt ed
Ġcrown ed
ĠBeaut iful
h ow
z ac
ĠS ep
ĠC N
ĠC rom
Ġbus y
Ġpriv ately
Ġsym met
Ġaccompl ish
ĠGon z
Ġo ak
ĠM ounted
Ġg amb
ĠPl aza
Ġmass es
Ġdisp utes
ĠMax im
Ġdescend ed
Ġdeleg ation
Ġjump ing
ir k
ĠD h
ĠF ras
Ġover h
Ġplan es
Ġcor ridor
ĠB ear
Ġcol oured
Ġgener als
Ġnorthwest ward
Ġtot ally
ĠJ en
Ġj oy
ĠProt ection
ĠCirc uit
Ġvolcan o
Ġcooper ation
Ġde eper
Ġcont ing
Ġ14 6
Ġcapt ivity
Ġhon est
ĠSen ators
a it
Ġn am
ĠH off
Ġsh adow
Ġinv ented
onn ell
Ġcoal ition
Ġori ent
ĠBuddh ist
t age
Ġl ux
Ġqu it
er vers
at em
Ġf ile
ĠT iger
ĠM ake
ĠF M
ĠCh op
Ġatmosp heric
Ġcoll ision
less ly
Ġstead y
Ġoutd oor
Ġsub urb
ros se
Ġdel ays
Ġlack s
ĠMot ion
isp here
Ġre iss
ĠH amb
ĠSt ore
ĠLou ise
ĠCarol ine
Ġnecess arily
ĠJan et
P a
Ġra pper
ĠSh ank
ĠAir borne
Ġfarm ing
Ġroll er
d an
Ġc hess
ĠC os
Ġpres um
Ð °
ace ous
Ġib n
5 0
ĠS ierra
Ġe ject
Ġn ests
ĠR ams
uch i
Ġtrack ing
ĠGener ation
Ġmut ual
ĠAdvent ures
Ġexcess ive
on ing
ĠR oth
Ġcon ve
Ġdec omp
Ġcre am
ĠPar achute
Ġfat alities
ĠObs erv
ĠNash ville
ĠB ron
ina e
ĠMy st
Ġh ur
ĠC ann
ab et
Ġj okes
ĠOn line
ug u
Ġ14 9
Ġelect ro
ĠÃ ģ
ĠSponge B
ĠB ott
ĠK ens
Ġdevelop er
Ġke en
achel or
ĠProduct ions
ent ric
ĠI C
ĠY et
Ġcal m
ĠCommission er
ĠHy d
Ġg reet
ĠG ust
Ġsh ops
ĠCon sequently
Ġsix ty
ĠHar per
Ġdecl aring
Ġcopy right
ĠAll Music
fic ial
ĠLyn ch
Ġl ava
ov ich
ĠCh all
Ġrel ay
Ġteam mates
ĠChair man
ĠH M
ĠPal mer
m ill
Ã £o
Ġin ject
Ġg ains
ĠAp art
Ġrecogn ize
Ġprohib ited
Ġkit chen
Ġstrugg ling
ĠDram a
Ġout s
Ġoper ator
ĠReg ard
ĠEm ily
ĠMaur ice
Ġp ine
le w
ach i
Ġreal izes
Ġdiv ine
ĠMo z
ĠBus ch
Ġstream s
Ġun employ
Ġgener ate
ĠPar amount
ĠTri p
ĠDam age
Ġcab in
Ġd ug
Ġtro phy
Ġhon ours
grad uate
Ġa uction
is ans
ĠC ant
Ġmin im
Ġed ges
ĠVal ent
ĠDev on
Ġelimin ate
Ġaggreg ate
Ġb er
el i
ot us
ĠH oll
ĠD id
oc ene
Ġback up
Ġpar am
Ġ21 0
Ġdisapp ear
Ġattract ive
Ġru ins
Ġpregn ancy
y ers
Ġt um
ĠN othing
Ġres erved
Ġstory lines
Ġfind ings
ĠGar field
Ġremark able
D A
Ġun st
ĠSp y
Ġfre ed
Ġri ff
Ġmerch ants
Ġincomple te
ĠS qu
ĠS old
il ia
ĠH ip
Ġdraw s
Ġphilos oph
nold s
ĠA ur
ĠO st
Ġso ap
ĠGu atem
Ġexper ts
Ġ184 8
Ġunus ually
Ġrevers ed
Ġm uzzle
ĠW id
Ġcl ay
elf are
Ġly ric
hous es
ĠB ast
ĠCh ancellor
Ġsec ular
Ġoper as
leg iate
Ġsp o
Ġimp ress
Ġtrans p
Ġ187 4
Ġacqu isition
ĠLar ge
Ġproceed ings
ĠRhodes ia
Ġconj unction
ĠAr ctic
let cher
Ġgr ants
Ġsurf aces
ĠSo ft
ĠPan ama
Ġadapt ations
hol m
Ġca ution
Ġscen ario
ĠK iss
Ġsket ch
Ġmemor able
Ġt ab
ay ette
ĠJ unction
Ġdec omm
Ġkeep s
Ġrid ic
Ġlif estyle
Ġpack age
Ġload ing
ĠGriff in
n et
ĠR andy
Ġsubst ance
ym n
Ġunp op
Ġperfect ly
m ons
ĠS ed
ad y
ist ically
Ġsufficient ly
Ġrestaur ants
Ġped est
p ow
Ġt ennis
Ġd ors
Ġch ances
Ġcons ul
Ġpr inc
Ġtrans c
Ġprog ression
ux ili
ĠSol omon
roll ing
Ġflo ating
ĠArmen ia
ĠStart ing
h urst
ĠE U
Ġres ort
Ġover th
ĠÂ µ
ĠBo oth
ĠHol mes
Ġfab ric
nd um
ĠD ian
ĠHe at
ĠRe form
Ġmet ropolitan
Ġer osion
Ġtun nels
Ġemphas ized
Ġs hed
Ġover d
ĠEd win
ĠDou g
Ġalleged ly
ĠFinn ish
Ġveter ans
Ġlob by
Ġh iding
ĠC ec
om es
ĠH ab
Ġdet ached
an an
ĠN umber
Ġass essed
Ġ14 4
Ġmotor way
ĠMichel le
Ġwor ried
ĠWind sor
ro zen
Ġmod es
ĠSer bs
ĠJac ques
ĠSpongeB ob
Ġd iving
ĠY ok
Ġmon itor
ĠPh ant
ĠLind wall
Ġmic ro
ĠTun nel
Ġpl ed
ipp ing
Ġincorpor ates
Ġclimb ing
p ost
Ġs in
Ġnight s
Ġmob il
Ġfest ivals
he ro
ĠN ed
ov o
ĠSp iel
Ġtop ic
ĠTo o
Ġdemonst ration
ĠForm ula
ĠAdv ance
ib l
Ġesc al
Ġmanif est
Ġc oc
ist le
ĠArab ic
us hes
ĠR up
ĠCl aire
Ġinvestig ated
Ġcounter att
ĠLu is
ĠIll ust
bird s
Ġsupple ment
H A
Å ¾
iv ic
Ġcent res
ĠGer ald
Ġspe eches
Ġput s
Ġflood s
Ġapprec iated
ĠMond ay
Ġf ox
im ination
Ġst y
ĠAugust us
ĠEl s
Ġfle e
ĠBer keley
Ġsyn th
ĠStan ford
Ġtend ed
Ġpros ecut
bro ok
Ġham let
ol ades
Ġpl utonium
ran o
Ġatt achment
Ġcr ust
ĠSuper man
ĠLeg ion
Ġrang ed
Ġerr ors
1 2
ĠS ue
ĠW ake
op ters
Ġob l
ĠGu ards
ĠPres ley
ĠPier ce
ol ine
Ġst ance
ĠL ut
Ġr ays
Ġam endment
Ġintern et
Ġple asure
r ators
Ġp ist
Ġh aul
Ġe ase
ĠMar tha
Ġwar rant
ĠCol lect
Ġmod ifications
Ġqual ify
ingu ished
Ġfil ter
Ġdiagn osed
ĠF ac
Ġup grade
Ġimm un
ĠCub an
oca ust
an ian
Ġnot ion
Ġcons ent
Ġmet ab
ĠZ h
ĠRec re
Ġintrodu cing
ĠBulgar ia
Ġinhab ited
Ġn aked
ĠO ber
Ġinc ons
Ġsec uring
Ġmain tains
ĠSound track
Ġstrengthen ing
ĠCommerc ial
ĠG am
les i
Ġgener ations
Ġconf ined
off icial
Ġp ushing
ap a
Ġne arest
Ġthough ts
Ġline up
Ġmer ger
ĠAnt i
Ġcamer as
ĠD ere
ĠPr ice
ĠMan or
Ġread s
ĠBel le
Ġthr ust
Ġcomfort able
l ies
Ġb onds
Ġit em
Ġen able
ĠFinal s
ĠJenn ings
ĠBroadcast ing
a ude
Ġbut t
Ġcomp at
ĠWar wick
ĠIr ving
pent er
Ġ28 0
Ġin ver
Ġre vel
ig u
Ġstri pped
ish i
over ning
ĠY u
Ġam pl
Ġorgan s
Ġ185 1
ĠDel hi
ĠMir ror
ĠChap man
ĠGabri el
ra id
qu et
ran n
velop ed
Ġelect oral
Ġwater line
Ġcolle ges
Ġs el
Ġc ere
ĠG as
Ġbet ray
Ġmus cle
ĠGl enn
can al
Ġgrand son
Ġelder ly
Ġf ib
Ġart if
Ġspe aker
ĠSw ord
ĠTurn pike
Ġs us
Ġs oci
og ical
ĠBer ry
Ġemb arr
Ġens emble
ĠSub sequently
Ġdoub les
im id
ĠE SP
yl ogen
Ġdark ness
ĠHay es
ĠN ab
ĠPre par
ĠHop kins
is le
ĠM ade
Ġkn ock
D P
ĠS r
ĠP un
Ġcare fully
Ġgrad uating
Ġsac red
ĠGlob al
Ġbrig ades
Ġlegit imate
Ġenthusi astic
osy stem
ĠC G
ĠTh ings
Ġfront ier
Ġflag s
ĠGo eb
ĠGuadal canal
ĠE t
Ġpre val
Ġmon ks
Ġ14 8
ĠCr ime
ĠBor ough
Ġw itch
Ġto ol
Ġl aying
ĠM ing
ĠE aster
Ġv it
ĠU m
Ġsuccess es
Ġbar rier
ĠSpiel berg
ar u
Ġsex ually
Ġsat ir
Ġexha ust
Ġ es
ĠS N
Ġhon ored
ĠF letcher
ĠL akes
ount ain
Ġprom ising
ĠEd gar
Ġdefe ats
Ġcou rage
Ġconsequ ently
ĠDer by
ĠBol ton
ĠS under
ĠK ot
Ġar bit
Ġele venth
Ġmid night
Ġste pped
Ġex ceeded
Ġdr ives
ĠPr in
ĠKenn y
Ġincorpor ate
ĠReview s
ĠEis enh
Ġrook ie
Ġw ounds
ĠC ave
ĠH ess
ĠMc A
ĠMan ager
rie ved
Ġesc apes
Ġlay out
ĠBang l
ĠBrand on
Ġspawn ed
Ġentert aining
o op
ĠR ugby
Ġinf ected
ĠSouth ampton
oph one
Ġcompens ation
Ġgenu ine
N e
Ġbe nd
od ia
oin ts
Ġinv itation
Ġ13 6
Ġmonth ly
Ġpress ed
osp here
Ġread ily
Ġblack s
ĠSch w
Ġident ification
Ġhealth y
Ġmist aken
ĠLaur a
ĠPrincip al
Ġ ump
Ġm es
Ġre ly
ĠS aints
Ġconclud es
Ġdefin itely
ĠBas in
Ġsub mit
ĠTr uth
Ġslow ed
ĠArt illery
Ġdi ary
ĠA F
ĠVen us
rif ied
er als
ou b
ĠP orter
ĠP irates
ib al
ĠHam mer
ĠPatt on
Ġf usion
is ch
Ġtr am
Ġret ros
ĠLe ader
Ġnorth bound
Ġdisp ers
Ġreflect s
Ġfrag ment
Ġmonarch y
Ġsoph istic
Ġ13 3
Ġthird s
Ġdra g
Ġinte gr
ĠN OK
and in
Ġloc ate
Ġcar n
Ġcor p
ĠRock y
umn i
Ġmaneu vers
b age
is or
Ġre per
ĠD oc
ĠL ay
Ġpos ed
Ġdest ination
ĠArt ist
Ġnegoti ated
ĠGard ens
Ġcontroll ing
Ġconv inc
Ġmiss iles
ĠTra vel
Ġdisappoint ment
Ġunpop ular
Ġt ide
ĠC rane
Ġass ignment
Ġpup ils
ĠHend rix
Ġinsc ription
ĠM ember
Ġtra p
ne um
Ġcompet itors
Ġemploy ee
Ġ37 0
Ġmeasure ments
ĠSeb ast
ĠEisenh ower
ĠF an
ĠSt op
pp ers
ict ions
Ġmag ical
Ġprof its
Ġceleb rity
U C
m itt
ĠG ren
ĠSt rat
Ġj ail
Ġsm art
Ġdem on
Ġexc iting
osh i
Ġdu et
Ġmir ror
Ġfor ts
Ġcomp uters
Ġcons umed
Ġass ume
Ġtra its
ĠTre asury
Ġautom atic
Ġcoff ee
ĠP s
ĠF ear
ne ath
Ġtest imony
Ġphys ician
Ġcolon el
Ġhero es
ĠLight ning
ĠB av
ĠR are
Ġdec iding
Ġref it
Ġaff ecting
ĠPow ers
ĠW als
ĠK os
ĠArgent ine
ĠStef ani
cliff e
ĠNeb r
in ite
ĠP rad
ĠF ant
os ely
ĠV ul
Ġant iqu
ĠWars aw
Ġaccur acy
ĠAI DS
d ict
n or
Ġs ink
ol ics
ĠR ever
Ġcap abilities
cy cl
Ġvolunte er
ĠAl most
Ġdist ances
au er
ĠRuss ians
Ġstrugg les
Ġpredecess ors
Ġneighb oring
Ġl ined
Ġtr il
ĠFl ag
ĠVar iety
Ġevolution ary
o ids
on om
Ġd orm
el ic
ĠC itiz
ĠW as
Ġab d
ters hire
Ġreal ize
ĠLuc y
Ġcho osing
Ġstom ach
ĠFergus on
ĠBangl ades
Ġp sy
ĠM unicip
ĠG one
Ġfre ight
Ġarc ade
Ġproced ures
Ġunn amed
Ġl ion
Ġr ush
ĠBrit ney
Ġtop ics
ĠColumb us
ĠSus sex
Ġdrain age
ĠIntellig ence
n am
at um
ĠWill is
ĠJeff rey
ro ck
ir ate
Ġor al
Ġle ather
Ġsc hem
Ġrele vant
Ġ26 0
writ er
rim ination
Ġbes ie
ĠL an
Ġse iz
Ġwould n
Ġsub urban
Ġac ids
ĠCar r
arch y
ĠRh ode
Ġcho ices
Ġmoment um
ĠH utch
Ġher ald
ade qu
Ġreg ret
Ġresp ected
ĠCast ro
Ġillust rations
Ġpreced ed
Ġblow n
Ġenforce ment
ĠS E
ĠS ite
ĠA w
ĠPl aces
Ġrequ ests
Ġtrib al
Ġfair y
chang es
ĠMort on
ĠRey nolds
j ud
u ates
ĠSp ect
Ġtre m
be it
k ed
ent e
Ġsp are
so on
Ġ14 2
ĠFran z
Ġfem inist
Ġkick ed
Ġenh ance
ĠS ter
vi k
Ġcinem at
Ġcong regation
he y
Ġa ug
is bury
Ġh in
ĠSh a
Ġhard ware
Ġnob ility
ĠUnivers e
Ġille g
Ġb old
Ġe cl
ĠH ig
ĠR ice
ĠL ag
Ġqu e
Ġany where
Ġbre ad
Ġsett ings
ĠBey ond
ĠMun ich
ĠEug ene
id ian
Ġunder neath
Ġbur st
ĠAnn ie
Ġbass ist
Ġdimens ions
ĠSout heast
I C
P C
Ġg overning
Ġspe akers
Ġtw elfth
Ġanal og
ĠPop ular
Ġlimit ations
Ġconqu ered
Ġadvoc ate
Ġabol ished
ĠLithuan ia
ĠNebr aska
Ġw are
Ġto ss
ĠB atter
ĠG reeks
ĠN y
ĠE ighth
Ġwar riors
Ġendors ed
Ġcom merce
Ġpro ven
Ġte a
ĠCal vin
Ġincor rect
Ġske leton
ĠH anna
ĠV a
Ġrepe at
Ġteen age
Ġabsol utely
ĠQuar ter
ĠWrest le
l ance
ĠH ast
ĠSt yle
Ġle ase
Ġwant ing
Ġpain ter
Ġresemb les
ess a
Ġj am
Ġmat urity
vers ely
Ġsusp ect
Ġprec ise
Ġcompris es
Ġrefere ndum
Ġcryst al
Ġthr iller
Ġnam ely
i ott
Å Ħ
Ġs ou
ĠS hen
ĠD re
Ġnation ally
ĠSur vey
ĠUlt imately
Ġimprison ment
V A
e le
o ft
v ae
Ġw ool
ĠL av
ĠCh i
Ġpres c
Ġnational ist
Ġnick el
Ġhelic opters
c ope
n ar
it ating
Ġh ol
ĠD awn
ĠW ander
ĠBoy d
ĠCat al
Ġmunicip ality
Ġaccord ance
Ġextraordin ary
ĠDere k
O M
ĠB alk
ĠP and
oc ese
Ġpr ayer
Ġunder lying
Ġ185 9
ĠÅ ł
ĠLithuan ian
Ġrect ang
I T
ĠM umb
ĠEu ro
ĠHam mond
Ġfort ified
Ġlem ur
ĠP age
ĠE ss
ip el
oun ce
ĠSh ack
ĠBrit t
Ġsecret ly
ĠUlt imate
Ġinnov ative
l ides
ĠP red
ĠK ur
Ġfe es
Ġext ant
ĠRh ys
ĠâĤ ¬
ĠR ather
ĠG ross
Ġpl astic
Ġsc ales
Ġret aining
ĠCom ic
Ġlim estone
ĠMon ument
Ġspecial ized
Ġren own
Ġder iv
ĠCath olics
Ġsubstant ially
Ġrum ors
ĠL ear
Ġund ers
Ġcou pled
ĠDist inguished
Ġl ocked
ĠD y
ĠRoad s
ij i
Ġsaf ely
Ġnegoti ate
ĠP end
Ġse ize
Ġfe ver
ãĥ ¼
ĠRem ix
Ġjudg ment
Ġb out
Ġp ian
ot on
ain ted
ĠK om
ĠK ath
Ġsc ope
Ġext inction
Ġtotal ed
Ġhang ing
Ġf art
ĠS port
Ġcomp act
Ġeff iciency
Ġgen ius
Ġspecial ist
ĠLo is
Ġdors al
Ġan at
Ġun ited
Ġrun way
Ġbar b
ĠAssoci ated
Ġkey boards
ĠDou ble
Ġmillimet res
el est
ĠM ine
ĠR af
Ġen acted
Ġmon uments
ĠCan ber
ĠSal isbury
Ġcust oms
Ġfit ting
ĠRoberts on
Ġhosp itals
Ġre writ
Ġex port
Ġ12 00
Ġ13 9
Ġin ex
ĠD ry
ĠW end
Ġal beit
ĠG av
ber ger
Ġch ains
Ġro d
Ġpre view
ĠSw an
Ġconv iction
Ġdece ased
Ġgif ts
Ġsubsidi ary
r ically
Ġf ake
ĠB M
ĠHol ocaust
Ġeat en
Ġtradem ark
Ġat oms
ab ling
out ed
Ġsouth bound
Ġmurd ers
a que
ĠD art
ĠW oll
ĠS au
ĠH ed
Ġr am
ĠBl ock
ĠBl aine
Ġpoin ting
aul ted
Ġpat ch
Ġvol unt
ĠOut side
Ġcrowd s
Ġwel com
in ely
Ġcomp rehensive
ĠQu inn
ĠTor res
Ġax is
ĠJoy ce
ĠTax onomy
Ġin adequ
ĠB un
ĠK aren
Ġj e
ĠJo el
Ġpres ervation
Ġinf licted
Ġdra gon
Ġarr ay
Ġsoc ieties
Ġthink s
Ġgar age
Ġfresh man
ĠFras er
in ate
Ġp ige
ĠP ont
ĠWill ie
Ġinvestig ations
ĠPhilipp ine
g ence
Ġdesign ers
Ġgu ided
Ġachie ving
Ġoccup y
Ġ184 5
agon ists
Ġsumm ary
Ġthro at
ĠSunder land
ĠK ay
ie v
Ġdiv ide
ĠGame play
Ġmerch and
Ġsynthes is
R T
Ġst unt
Ġsp here
ond e
Ġper ception
ĠAm az
Ġreal m
Ġfact ions
Ġfac ts
ĠAngel a
ĠCrit ic
ĠH V
Ġbl ank
ĠRed s
Ġintercept ed
ĠAnd rÃ©
na e
Ġintrodu ces
ĠMet all
Ġsexual ity
ĠJenn a
Ġpros ecution
Ġr er
Ġcont rary
Ġhigh lights
Ġinf ant
ĠArm s
Ġsevent een
ĠScout ing
ĠBright on
ĠStal in
Ġbreak down
Ġdom ain
Ġpitch ing
ĠWhit ney
ĠLess er
Ġconfron ted
Ġa thlete
Ġrel ax
ott a
ĠLind a
Ġresol ve
ĠRI AA
or o
ĠH IV
ĠâĢ ĺ
Ġsub stit
ĠSh ir
Ġ æ
Ġc ement
ĠR esp
Ġal ert
Ġv ow
Ġserv ants
Ġreal ised
Ġperm it
Ġroll ing
1 1
Ġin quiry
Ġp ocket
ĠN u
Ġprot ective
Ġrap e
Ġtend ency
ĠTimber lake
il ian
ĠA zer
Ġg ren
ĠV on
Ġte nder
Ġeng ra
Ġvac c
z ym
Ġm ouse
ĠB le
ĠR acing
Ġsc orer
ĠAl c
Ġmon sters
Ġball ot
Ġavail ability
ĠNort on
ĠArab ian
Ġancest ors
ĠDomin ican
Ġs id
ĠC oul
ad ic
Ġhe ll
ĠD iet
ĠSh awn
Ġeffect iveness
ĠEx am
Ġexc ited
ĠBu enos
Ġadopt ion
ĠAx is
ĠPorts mouth
or ters
Ġf ut
Ġd ome
Ġan k
ĠAr n
Ġ14 7
I N
Ġ ãĤ
Ġam ino
Ġgr ace
sp ring
ĠMy c
ĠDay ton
Ġcollect ive
Ġdecomm issioned
Ġcont ents
Ġadm ired
ĠScot ia
ĠESP N
Ġear s
Ġsol utions
ĠÎ ¼
ĠMcM ah
ĠPeters burg
Ġlesb ian
ĠL ac
ĠAn a
Ġam azing
Ġmat ched
Ġbas ement
Ġdraw ings
iat us
Ġw ors
ĠP itt
Ġpl acement
Ġbl og
ĠCl aud
ĠFor bes
Ġactiv ated
Ġanal ys
il is
ĠK ann
Ġ... .
ĠAir craft
ĠDur ham
o an
ĠK le
Ġcare ers
ĠEll iott
ĠNon etheless
ĠBes ides
ov an
Ġsub urbs
Ġbar racks
D T
ĠR Ã©
um s
ĠIn formation
Ġcl er
Ġter restrial
itte es
Ġhom age
Ġstop ping
Ġo z
Ġm ere
ith m
os al
Ġend angered
Ġmet eor
Ġins ect
ys s
ĠSing h
Ġ182 0
Ġdepend s
ĠBa iley
Ġbot an
r ina
es ters
ĠSc andin
ĠTra ff
Ġconclud ing
ĠStra it
Ġanth rop
Ġski ing
ĠSic ily
uxili ary
it ory
ar med
ac co
Ġal umin
Ġperform er
Ġmot ivated
Ġden omin
Ġcitizens hip
an z
ĠS MS
ĠG iven
Ġsp ont
ace ae
Ġvis uals
ĠAnd ers
Ġdepart ments
ĠGal ile
ĠFerr ari
Ġc it
ĠC ros
ĠM Ã¼
Ġunder m
oura ge
ĠHum ph
ĠWeb ber
ĠCaes ar
ĠK ang
Ġro de
Ġrel iable
Ġann oy
Ġvar ieties
Ġfav oured
ĠEngine ers
Ġmathemat ical
ĠF C
Ġreg ulation
Ġgoal keeper
ĠHistor ian
ĠHug o
ĠOm aha
ro ft
ĠL odge
ĠCh al
Ġrece iver
Ġmar itime
Ġsubs id
ĠEconom ic
Ġd ign
ĠW ang
Ġwork sh
Ġrun ners
Ġpers isted
aud i
E T
Ġcomm ended
ĠAust en
Ġworld s
Ġcountry side
Ġsem if
eld a
Ġcolle ague
Ġunh appy
j ar
ĠT ell
ĠB irth
ĠG y
Ġorgan isations
Ġfort une
ĠMod el
ĠBah amas
Ġrecon cil
Ġpuzz les
h m
Ġb ishops
ĠA j
ĠM aple
Ġst uck
ged y
ret ion
Ġsol ve
Ġwat ches
Ġdomin ance
agon al
ÅĤ aw
Ġdin osaurs
Ġthe or
ad oes
ĠI X
Ġst ip
ĠD uck
ĠW ilm
ĠJ ag
ĠJ azz
Ġim per
ĠAssist ant
ĠC ock
ĠR uther
ĠL ope
ĠN em
Ġseason al
Ġback d
Ġgovern ed
Ġobs ervers
ĠMac L
Ġche ap
ĠDemocr at
ĠGard ner
Ġdemocr acy
Ġreh abil
Ġb inding
Ġm ast
ĠT rain
ĠS my
ĠC yp
ke ys
Ġmill imeter
Ġgu id
Ġsl ot
ĠBer k
Ġreflect ing
Ġinstall ment
Ġsatisf ied
ĠJosh ua
Ġacceler ated
ĠCanber ra
Ġl ingu
ĠW u
ch ild
est ock
ĠE van
Ġex agger
te g
Ġspec ified
lu ence
Ġsil ence
zy me
Ġdiagn osis
ĠMumb ai
Ġd ys
Ġh ipp
ĠH ers
ant o
Ġph ases
Ġ185 4
ĠPri est
ĠMore over
ias m
Ġexplicit ly
ĠHamb urg
ĠD oll
ct ive
Ġev ol
Ġtalk ed
Ġcorrespond ence
Ġinher it
ĠDuc hess
ish na
ĠPl ate
Ġaver aging
Ġactiv ist
ĠIm m
ĠDod gers
Ġborrow ed
j ord
ĠG at
Ġdet achment
ĠX V
Ġfun k
ĠMon ica
Ġbusiness man
ĠPal m
Ġincorpor ating
ĠPruss ia
ar ity
ra h
so ver
Ġcl uster
Ġwood land
Ġfail s
Ġl od
Ġg rab
im an
ĠG iant
ĠN ME
ub a
Ġ185 7
Ġboard ing
Ġcle ver
Ġremark s
unc iation
Ġfrust rated
Ġjuven ile
ĠP ix
Ġperform s
Ġgoal tend
Ġprec urs
Ġexhib its
ĠConc ord
ĠSn ake
Ï ģ
ir s
ĠW ick
ĠL ions
Ġdown ed
Ġpresent ing
Ġens ured
Ġisot opes
ĠW ong
Ġle aked
Ġfrig ates
Ġsib lings
ĠLope z
Ġo st
or p
ĠR overs
ĠF alk
ĠE agles
ĠO g
Ġmin eral
Ġsl opes
Ġshort ened
ĠNe g
Ġvari ants
ĠPear son
Ġconfig uration
ch ard
ĠSy rian
Ġchart ing
ĠDist ribution
Ġec osystem
M ania
ĠA ven
ĠA ires
ĠNew ark
Ġmed ian
Ġval ued
Ġsan ct
Ġimmig ration
Ġt ier
Ġm all
ĠT ampa
ĠA U
ĠD iana
th rop
Ġer up
Ġste al
Ġconduct or
ibl ical
b ul
Ġ à
ĠC ore
id ity
Ġbus es
Ġmor ale
Ġnortheast ward
ĠEngine er
Ġorb its
Ġine ff
Ġf us
Ġd rift
ĠCon v
gg y
Ġsound ed
Ġavo iding
Ġanch or
Ġdisagre ed
ĠOpp en
ĠRecre ation
ou fl
st ock
ĠC reat
Ġn a
ĠB ened
ĠH ave
art e
ĠY ang
Ġexp elled
aun ton
Ġintent ions
x ter
ĠM ale
ĠD ale
Ġdevelop s
ĠBe ast
Ġbo om
bor o
ĠConc ert
Ġecc entric
ĠA N
ĠR S
em pl
ri et
Ġdesc riptions
Ġste ering
al and
im o
Ġch ambers
Ġprim itive
Ġpoison ing
Ġtril ogy
ĠT ank
Ġpl ag
Ġun ity
ĠPl aying
Ġimm une
ovak ia
u in
Ġb ure
Ġb icy
Ġn Ã©e
Ġal iens
ĠDi á»ĩ
ĠJess e
Ġorb ital
Ġportr ays
b ane
h orn
l ay
er os
en ary
Ġst rain
ĠJ in
art z
Ġret iring
Ġreg ain
Ġlow ered
ĠDan ube
Ġrespons ibilities
Ġscript s
ĠVol ume
Ġreun ited
Ġpromin ence
av i
Ġtr ump
Ġlar vae
Ġfound ations
Ġdep ot
ĠBut ter
Ġdeterm ination
Ġshel ters
ĠHold en
ĠDiá»ĩ m
z ens
ĠN ig
ĠN ame
Ġle an
Ġafter ward
Ġout lets
ons cious
ĠNe ither
ĠHall ow
ĠRh ine
Ġpersu ade
Ġcontinu ously
Ġb ag
ĠK as
ast ical
ail and
Ġacc ent
ĠCom pton
ik er
ĠFran Ã§
Ġorgan ize
ĠAng lic
Ġsuper hero
hy d
ĠCru z
Ġcatal og
on i
Ġin ev
ĠD um
Ġr ises
ĠAd ult
Ġscreen ed
Ġche er
ĠHann ah
Ġs aves
Ġd io
ub les
air d
Ã© l
it ational
Ġin ability
ĠS C
ene z
ĠTr in
Ġ32 0
gr im
Ġpeace ful
Ġdoub led
Ġattrib utes
Ġnarrow ly
Ġdrop s
Ġoverh aul
c ies
ol esc
ĠR ip
ĠL az
ĠO C
Ġtra ils
ĠMc E
ĠBro ck
Ġir re
Ġadvent ures
ĠDest iny
ĠEnvironment al
ĠMcMah on
at oes
Ġd ish
ĠT ill
om orph
ĠAr med
Ġsmall est
ĠPhil os
Ġjud ged
Ġbow ler
Ġbig ger
Ġdream s
ĠGu err
ĠIm medi
ĠAdri atic
Ġt ailed
ar in
if ax
Ġover time
ĠSchool s
Ġroof s
ĠSav age
Ġwel come
ĠBanglades h
v as
Ġc ord
Ġfre ely
Ġlink ing
Ġsymb olic
Ġenlar ged
ĠI vy
per ed
Ġbreak through
ĠAsh ley
ĠMov ing
ĠKnow les
b in
ĠS AS
Ġg ig
ĠN an
Ġtr act
Ġgrad uation
Ġ55 0
ĠWrit ers
Ġtransform ation
Ġaccommod ation
ĠSug ar
Ġtong ue
Ġp neum
ĠD over
ĠG aza
Ġdet on
ighth ouse
g as
Ġsil k
ĠRet rieved
ĠTrad ition
g ov
h al
Ġt ales
op al
ĠSh ore
Ġac ute
ĠAll an
ĠKing ston
Ġaccept ing
ĠSing er
Ġlov es
Ġmanuscript s
is a
Ġd ent
ĠR ook
ĠE b
Ġcommand s
Ġ185 8
Ġfinanc ially
Ã¤ n
Ġabol ition
ĠAntar ctic
el age
ĠH ollow
Ġab rupt
ĠLe ft
ĠInd ivid
Ġrespons es
ĠAlexand ria
m atic
Î ¹
Ġv eto
oth s
Ġpr ay
Ġspect rum
Ġo t
Ġb red
Ġh aun
ĠS ah
ĠF ringe
ĠL or
ĠK arn
ĠV as
ĠIndian apolis
ĠWrit ten
Ġisol ation
Ġexclud ed
G S
at ab
ĠC ert
ĠL ich
Ġshort age
Ġleg ally
ĠBah rain
Ġreven ues
Ġdeterior ated
Ġsovereign ty
Ġcentimet res
O L
ĠS ag
Ġbl ame
unk er
Ġclear ing
ĠObs erver
Ġunw illing
at ters
Ġcon form
ĠY ank
vi Äĩ
alf ord
Ġcoun ted
Ġexpress ing
Ġquant ity
Ġnit rogen
Ġwelcom ed
c hester
ic ia
Ġre app
Ġsh apes
ĠSp ot
ĠBet ty
Ġ181 2
ĠChap ter
ĠLim ited
ĠBird s
am ous
ĠD ata
ĠF iction
Ġph ylogen
omet own
Ġlaunch ing
ropol is
Ġconvoy s
Ġkid ney
Ġenthus iasm
ĠCost a
Ġreleg ated
ĠSerge ant
orig inal
avil ion
et e
Ġactiv ists
ĠPresident ial
Ġbr ass
Ġevac uate
Ġrejoin ed
Ġcontempor aries
ĠD ana
ĠG and
Ġsc ream
Ġeconom ics
Ġgal axy
Ġovers aw
F ar
g un
Ġs aint
ĠD rew
Ġent ries
ĠMin ne
Ġpri ests
oe uv
Ġfr ames
ĠJul ia
Ġpoll s
ĠCe leb
ĠÂµ m
v ous
Ġt ables
st ead
ĠB j
ĠAfter wards
Ġship ments
ĠMo h
ĠUnder ground
ĠCr ash
ĠAst ron
Ġsymp athetic
Ġfier ce
ĠRuther ford
A M
Ġp p
ĠA way
Ġal k
ĠL omb
qu in
Ġsu ed
und y
ĠTh ir
ang a
Ġdep r
ĠCap com
Ġ33 0
Ġplat oon
Ġaccum ulated
Ġhe s
Ġal arm
ĠG ore
Ġsh ocked
ĠU ran
ĠJohn s
Ġtechn ologies
Ġcas em
Ġtourn aments
Ġbul let
Ġclim ax
ĠXII I
ĠF ul
ĠComp an
Ġ184 9
Ġrecommend ation
ĠBrun s
Ġsuperst ructure
ĠTib et
Ġtelev ised
ĠWrestle Mania
ĠH utton
ĠF aith
ĠL ans
ĠRe id
Ġprop eller
Ġsw all
Ġmanag ers
Ġsubject ed
Ġ185 6
Ġgrand mother
ĠAv on
ĠDyn asty
ic z
Ġd ull
Ġg ills
ĠH od
Ġwh it
ĠTh ailand
oy a
Ġlaw yers
Ġnar rator
Ġri ot
ĠCra zy
Ġwrest lers
ĠNept une
b rates
p ur
Ġan onymous
Ġcons erv
Ġmed ley
Ġsit com
Ġfr atern
ĠHal ifax
Ġf et
al ine
ĠS P
ĠC ran
ĠD ob
Ġconfront ation
ĠWinc hester
g ent
Ġfav ourable
Ġcat ches
Ġpurs uing
Ġpoll ution
Ġwonder ful
Ð ¾
Ġt et
Ġp ad
Ġdis k
Ġdispl acement
Ġworth y
ĠPruss ian
ĠHeb rew
Ġtelesc ope
ĠMiddles ex
u ke
it ative
ĠD ock
ĠG ould
Ġrec apt
ki en
Ġimag ination
olith ic
Ġacc idents
sh i
ĠCo ch
Ġphys ic
Ġmean while
Ġinvestig ating
Ġnucle us
w orld
Ġa ster
Ġb eds
Ġint rig
Ġhar vest
ent ry
ĠB ever
ĠL il
Ġcont acts
Ġman or
ik k
Ġcrit eria
Ġcapt ive
ĠWhe eler
Ġtheore tical
Ġpostp oned
E F
Ġhe ating
Ġv in
Ġshow c
Ġconc lus
Ġtro ut
Ġalt ogether
ĠDisc overy
Ġw elfare
Ġl auded
Ġbe ings
ong ed
ĠK or
ting ham
Ġmeant ime
Ġcompar isons
z el
am us
ĠB L
Ġst ake
ĠO S
ĠTh orn
Ġpar ade
ĠBar ber
Ġtro ubl
Ġadm its
ĠBrad ford
Ġaffili ated
Ġinfer ior
Ġencourag ing
Ġc ott
ĠG Ã¶
ens ing
Ġdram atically
Ġrecre ational
c aster
Ġc ros
op l
op us
art a
Ġep id
Ġreview ing
Ġview er
ĠAR IA
ĠPrim ary
he res
ĠS es
ĠH ir
ĠH aven
ĠK end
Ġaver ages
ĠEven ing
f act
Ġs ax
ĠJ ava
Ġtr ace
Ġobs erve
ĠStaff ord
Ġdisturb ed
Ġh ometown
ĠS ul
Ġde er
Ġpre ference
Ġnew er
Ġunder graduate
Ġexp enses
Ġref usal
ĠAng els
Ġter rible
Ġrebu ilding
ĠRhodes ian
Ġthunderstorm s
ĠC ly
Ġst ab
oy le
Ġ14 3
Ġdecl ining
ĠNor wich
ĠInter ior
Ġplant ed
ĠSebast ian
cycl op
ĠTraff ord
Ġc ig
Ġl oses
id ad
ĠP itch
Ġpl ug
Ġsh ale
Ġper ipher
ĠLe vel
ĠBe au
Ġevery body
ĠHaw k
ĠV ince
ib e
ĠCo ach
Ġcerem onial
ĠMedic ine
Ġrenown ed
Ġt ired
ĠT ina
rodu ction
ĠDon na
Ġtend s
ĠFre eway
ĠJess ica
ĠLaf ayette
Ġc av
ou k
Ġl unch
ĠJ ak
ĠE rie
ĠV augh
Ġper imeter
ĠAr d
Ġdest ruct
Ġorder ing
Ġmoder ately
Ġautom atically
Ġspok es
Ġmonit oring
op old
Ġinter rog
Ġret ro
Ġdisc rimination
Ġcal endar
ĠGre ene
Ġsend s
Ġsupposed ly
Ġadvertis ement
an as
Ġd il
ĠR ot
Ġdedic ation
igg ered
Ġpure ly
R O
c ip
Ġs ab
ĠP ike
Ġtr iggered
ĠBy rd
ĠComm odore
Ġsocial ist
Ġcivil ization
Ġ65 0
ĠStew ie
Ġimplement ation
1 9
Ġd olph
ĠC ai
ĠL ey
ĠWe ber
Ġmanufact urer
ĠRoc hester
Ġdrown ed
i ability
Ġw ages
Ġse am
ĠMar cel
Ġadm ission
Ġpow der
Ġtru cks
Ġrow s
h aus
Ġm ock
ĠT ong
Ġst un
ĠW ade
ĠZ oo
Ġcur ric
Ġconcent rate
Ġrecommend ations
Ġexha usted
ĠLiter ary
ĠH appy
ĠO il
ass ing
orm al
Ġimp ed
Ġtest ified
Ġtim ing
d ish
Ġf ins
Ġl ibr
ĠL og
Ġex empl
red ited
Ġkind s
ĠHun ting
Ġhapp ens
Ġw ond
id an
Ġmar ble
Ġdeg ener
Ġreason able
ĠPriv ate
w oman
Ġf ing
Ġn urse
ĠR i
ag ara
Ġins urg
ĠBe ing
Ġsupp ress
ĠGlou cester
Ġn ost
ov ed
Ġpass ages
Ġconf isc
ĠDam asc
Ġdemocr atic
Ġc ater
an or
Ġhe ter
Ġbu ying
ĠSh aron
Ġsm oking
Ġfre estyle
Ġic onic
Ġrectang ular
ĠBruns wick
at as
ĠM iy
Ġg ospel
ĠJ ets
ĠTh urs
Ġdis rupt
ĠCanad iens
ĠWy att
ĠBeh ind
ĠC IA
ĠR ama
Ġpro c
Ġapp rent
Ġdisc l
Ġmort ality
Ġunn ecess
Ġtherm al
b ai
f old
on er
Ġs ided
ar re
ĠK ol
ov ny
pl ing
iz able
Ġpe as
ĠDec l
Ġsle e
ĠShak ira
Ġindu ced
Ġportr aying
c omb
Ġt iny
Ġcap ability
ĠRich ards
ĠFore ver
ĠCorn ell
ĠMah ar
Ġneighborhood s
Ġcontroll er
ĠDuch ovny
Ġguid ance
Ġam ounted
Ġbo ards
aster ly
Ġ185 2
ĠLouis ville
Ġnation wide
ĠOppen heimer
ĠN im
omet ry
ĠGu est
Ġdeg rad
oh l
Ġtorn adoes
g i
th al
Ġco aster
Ġdet ective
ĠCo hen
Ġaff ection
Ġobject ed
Ġbats men
Ġpublisher s
ĠThor pe
ĠHem ing
á ¹
Ġl or
ĠF ra
ĠN iger
ĠPer u
Ġren t
Ġnest ing
Ġtort ure
ĠEld er
th ood
pl ane
Ġinst ances
Ġcommunic ate
ĠIraq i
Ġencl osed
ig uous
em ics
ch ant
if ier
Ġprom ises
Ġpar ad
Ġlabel ed
Ġphilosoph ical
Ġh ollow
ĠR ank
ĠD ame
ĠJ oker
Ġfl av
ĠMy ster
ĠBet ter
Ġut ter
ĠBas il
Ġbed room
Ġadequ ate
ec a
ĠF en
ĠF olk
oc ate
Ġstat ute
ĠMet roid
ĠStud ent
Ġ184 7
ĠVol unte
ĠYank ovic
k ar
at ri
Ġn as
ĠG ret
Ġsk illed
iff s
ĠHind i
ĠEpis ode
Ġsk irm
Ġdemol ition
Ġdissip ating
ĠMig uel
et ics
ĠH ank
ĠP ath
Ġinv ested
Ġpat ent
ĠMil ton
Ġ185 5
unt a
Ġculmin ated
Ġfilmm akers
ĠLeban on
ĠS z
il us
am y
ĠH ern
Ġch im
Ġcl ient
ĠHar bour
Ġradio active
Ġcomplex ity
Ġceleb rations
Ġqual ification
Ġaccount ing
Ġmanufact ure
ĠF ow
ĠJ a
rib e
Ġoper ators
oul t
Ġhard er
Ġviol ation
Ġfarm land
Ġsophistic ated
ĠImmedi ately
c at
f ast
f ires
Ġv ibr
ĠK un
Ġcr us
ĠCle ment
Ġsand stone
gest ion
Ġcanc ellation
c ling
u cc
ĠV enez
Ġreg ards
Ġsl ip
ĠVir t
Ġlad y
Ġaest hetic
ipel ago
o qu
ir able
Ġst ing
Ġgener ic
ĠDar ren
Ġrecip ient
Ġinnoc ent
id ium
ord ination
Ġinter face
Ġvirt ual
Ġconced ed
om i
ĠB Ã©
ell es
Ġhel ium
Ġ184 6
Ġh alt
ĠS iege
Ġsh irts
ĠEy e
ĠM its
ĠH undred
se nd
Ġcl erk
ĠAs ide
Ġdiv orced
Ġpur ple
Ġprem ise
Ġbroadcast ing
umber ing
ĠAC C
Ġmort ar
Ġdischar ge
ĠRup ert
ĠHast ings
ĠDamasc us
is ure
ĠM Ã©
ĠP aper
ĠV ocal
Ġfl aw
Ġass ured
Ġdon ations
che v
Ġf og
ĠS audi
ur ated
ĠAr cher
Ġgu err
Ġarch itects
Ã³ w
ĠJam ie
Ġtack le
her d
Ġco ached
Ġvict orious
Ġcateg or
Ġrub ber
Ġdesper ate
ĠSans k
Ġconvinc ing
in os
el ong
ĠC ret
am o
ĠP ale
ĠG wen
ren cy
Ġposs essions
Ġche ek
ĠGeorg ian
ĠJul iet
Ġancest or
Ġru ined
Ġpsy ched
c or
e a
ĠE uras
ĠAl onso
ke e
Ġpe ers
ĠZ elda
hold ers
Ġ183 2
Ġaccus ations
o que
Ġs its
Ġl ots
Ġreg ener
ĠCle m
Ġconsum er
Ġhorn s
ĠN olan
ĠAr ist
ĠLex ington
Ġing red
Ġcam oufl
Ġtrig ger
at z
en stein
ĠS it
ad ar
ĠM ater
ĠF i
Ġdis rupted
lud ed
Ġgu ys
ĠEm b
Ġdimin ished
Ġkilog rams
ĠAzer bai
Ġdio xide
ac a
ĠH ear
ĠL angu
od ing
Ġred dish
Ġdecl are
Ġdev ised
Ġop ener
ĠAnn ual
ĠJul ie
Ġparallel s
ĠInit ial
ĠDog gett
ĠChet nik
Ġd y
ĠC ay
im son
ew ays
ap or
Ġher b
Ġoff spring
Ġpres umed
ĠGl ac
Ġrend ition
ĠAppro x
ĠC lear
ĠTh irty
ely n
ator ies
Ġstar ter
Ġox ide
Ġbal let
ĠHispan ic
c ul
Ġc ogn
ĠT omb
ĠM ered
Ġcl usters
ry s
ass ium
Ġremn ant
ĠVis ual
ĠTon ight
Ġo ath
Ġd ining
ĠB ess
Ġhe ated
ĠL C
ĠG ael
ie u
Ġfl ies
com mun
ĠSaf ety
in tend
ĠInd eed
Ġinvest ors
Ġaccept able
Ġcompan ions
Ġdefend er
Ġliv estock
W R
b red
ĠS tern
Ġn erve
ĠW ess
ĠK amp
ĠK Ã¶n
ĠAd olf
Ġprem ier
Ġcorn ers
ĠMans field
ĠFull er
ĠBris bane
Ġo re
il ight
ly ph
qu el
ĠNe igh
rain ts
Ġemb assy
Ġcommemor ate
ĠStock holm
ĠBuck ingham
ĠMinne apolis
r ust
Ð ¸
Ġa ims
Ġh iatus
Ġmon soon
Ġdep ress
Ġland sc
Ġlim bs
ĠCub s
Ġrelie ve
Ġstrict ly
ĠMong ol
as ma
Ġl ord
ĠM iz
Ġbe aches
un ct
ĠWar riors
Ġarch bishop
ĠLaure n
ĠMered ith
Ġh ate
ĠAl ien
Ġman ned
Ġman oeuv
ath on
ĠOr land
ĠTe en
Ġexcept ional
Ġbox es
Ġsle eping
ĠEy es
Ġabb ey
Ġposthum ously
ĠShack leton
Ġbackd rop
ch y
ĠShe ar
Ġpay ments
Ġcolon ists
ĠWor cester
Ġplum age
ĠMethod ist
Ġ Ø
al ore
Ġv iral
ĠK iel
ĠCar penter
Ġeight eenth
Ġinadequ ate
Ġ Ì
Ġs acked
it us
ĠE MI
Ġinf ilt
Ġpartic le
Ġdiss atisf
Ġthrow s
Ġcool er
Ġbes ide
d al
ĠL anka
Ġcl ad
ib les
Ġnum er
Ġperson a
Ġ185 3
ĠGrand e
ĠScient ific
U P
is en
Ġal tar
Ġdef ining
ĠTe le
Ġprof ound
ĠMor oc
ĠMac D
Ġmos que
Ġpresum ably
Ġschem es
ĠHallow een
g ae
Ġt ear
Ġf als
ĠB ard
ĠW imb
ĠCh a
ven ge
Ġcharacter ised
Ġfeed back
ĠWild life
ĠSansk rit
iv ided
ĠP or
Ġcl ause
ĠMe et
Ġbre ach
ĠFl ash
Ġannoun cing
ĠSup porting
Ġunp re
Ġcook ing
ĠCoal ition
1 5
l ot
y on
Ġ ell
ĠD ad
ĠW ey
ĠLe ip
Ġsl ope
sequ ent
ĠNe ed
Ġf u
ar ck
Ġl oot
Ġst alk
th ouse
op ing
Ġsp arked
ren ches
ĠBe atty
Ġcor poration
Ġcomb ine
ĠOrig ins
Ġwrest ler
Ġportra its
Ġorient ation
h ist
y t
un ion
Ġkn ight
ĠKey s
g irl
ĠT act
Ġun official
ces tershire
ific ate
led on
ĠNorth umb
ĠOr k
ĠSpec ies
l ide
É ª
Ġsp ear
ĠLe opold
Ġcr ack
ĠHam pton
Ġpen alties
Ġinstruct or
ĠCher ry
Ġw ears
Ġth read
ol ves
Ġsp ark
Ġsp ans
Ġj eal
Ġdef ine
ĠSh ane
Ġcoun ts
Ġnon etheless
Ġbroad er
ĠCart e
Ġecc lesi
ĠL ak
ced ented
aw i
ĠSe ym
Ġsouth ward
ĠGu am
Ġmake up
Ġpack ed
ĠAnim ation
Ġdies el
ĠOrland o
Ġt ears
Ġh ub
ĠC um
Ġl ith
ĠY ale
Ġam end
Ġmet ap
ĠCol bert
sh adow
ĠÃ ħ
Ġsen ator
ĠSub sequent
Ġobserv ing
Ġuncertain ty
Ġfron tal
ĠApprox imately
Ġrel at
ĠHer ze
ĠCorn er
Ġoutf it
ĠWed nes
Ġnomine e
O W
Ġpo ets
Ġdeb ated
ĠPat ric
ĠCast ing
Ġgra vel
Ġspeak s
in as
Ġf oul
ou x
ĠS pl
ĠC ul
Ġform ats
ĠCl are
ah o
Ġele g
Ġel imination
Ġcollect ively
Ġclimb ed
Ġforg otten
Ġshar ply
ar c
am ph
ad os
Ġg rap
Ġcon ning
Ġbut ton
empt ion
Ġrail ways
Ġtax on
Ġkilomet re
Ġconcent rations
Ġwild life
ĠHard ing
fl ies
Ġconvent ions
Ġlect ures
ĠKap oor
ĠHoff man
ĠS inc
ĠTh anks
by ter
Ġhum our
Ġant agonist
Ġkey s
Ġemer ge
Ġunpre cedented
R I
iv ier
Ġen abling
ĠDe xter
Ġfund ra
ĠPers ians
Ġsed iment
ĠPalest inian
ĠSeym our
l air
w y
or g
Ġf right
ĠS elf
ĠB end
ĠF o
ĠCh ambers
Ġcl oth
Ġserv ant
Ġref lection
Ġz inc
ĠVict ory
Ġ184 1
Ġresemb lance
ĠVik ing
Ġadvertis ements
Ġfant astic
ut ors
ĠPar ad
ĠGeor get
mar ine
ĠKn ox
Ġri f
Ġmechan isms
ĠLyn n
Ġdiff ers
ĠComple te
ĠWes ley
ion ed
Ġcom eb
Ġr h
Ġj ungle
Ġtr aced
ĠCar roll
Ġref using
ĠMan ila
ĠPre vious
ĠAut o
Ġclin ical
Ġfram ework
l led
p op
ĠS eth
Ġl ords
ĠB ord
ir us
ĠG em
op y
res cent
Ġro uted
Ġund ef
Ġrep orters
uc lear
Ġrid ges
ĠWin ston
Ġmagn et
ĠPerson a
ĠCinem a
ĠNum erous
r ors
Ġp ard
as ures
ĠC risis
ĠM echan
im i
Ġwhere by
Ġadd itions
Ġevery day
ĠBer gen
Ġstret ched
ĠKr ishna
Ġlisten ers
Ġtriang le
ic on
ill on
Ġse aled
Ġrec laim
Ġcour ty
Ġhot els
Ġpromin ently
Ġhect ares
3 8
ĠT win
our se
Ġrem aster
Ġstat ues
Ġpurch asing
ĠAlb ion
ĠWell es
Ġpup pet
Ġancest ry
ĠPant hers
ĠUnd ert
Ġs au
en ge
Ġto b
ĠT roy
ul ent
Ġse ated
rit ies
Ġne u
Ġdisc o
Ġland own
ĠJack ie
Ã± a
ĠSomet imes
roscop ic
Ġf illing
ĠF ey
Ġle nd
Ġres ource
ĠBel arus
Ġdisapp ro
ĠHor ror
ĠWork ing
ĠTechn ical
ĠSin atra
Ġcurren ts
Ġspir its
ĠS T
ch air
ag ne
Ġdo zens
Ġrep rin
Ġ184 4
ĠCard inal
ĠOak land
Ġpull ing
idel ines
ĠHok ies
D OT
Ġl av
Ġe ager
Ġbe friend
Ġinter im
ĠAn imal
Ġart ic
ĠBel grade
Ġteen ager
ĠPil ot
Ġguarant eed
Ġcomed ian
ĠCec il
r imin
ĠS ales
ent in
ĠD ixon
Ġwhe els
Ġmus cles
ĠQ ual
Ġsimilar ity
ĠStud ents
Ġdig est
Ġexped itions
ĠSurv iv
A D
r aced
er get
Ġb a
ĠD und
Ġste als
umb ent
Ġtransport s
ĠLo ch
Ġdevast ated
ĠHeming way
ĠVenez uel
Ġp orn
el man
ĠC rist
om o
ur u
Ġbo iler
Ġsoc cer
Ġang les
Ġske let
ĠB ret
ĠD up
ĠJ MA
ĠO wn
Ġcomp osing
Ġover night
ĠUn f
Ġuniform s
Ġrein st
ĠM oor
ĠM GM
Ġon set
ĠH ack
ĠP P
Ġst up
ĠD ew
ĠD ors
op oly
Ġex changed
ann i
ĠVer de
ĠKa hn
Ġ. .
Ġp ac
ĠE S
Ġship yard
Ġreal ism
Ġbroad ly
ĠTrans it
ĠCamp us
Ġpy ramid
ĠâĻ Ń
c os
l im
n ant
t ra
it he
Ġm ating
ĠD ol
ĠJ ed
Ġde leted
Ġse ating
ĠK ids
ĠV ery
Ġent ity
Ġinv as
af e
Ġshoot s
Ġbur den
Ġdead line
Ġcontem pl
hr er
Ġpatron age
Ġcounterp art
ĠDaw son
it ia
Ġp ub
Ġsm ugg
Ġmay be
Ġelect rons
ĠBatt les
Ġassoci ates
Ġpract iced
ĠFer ry
Ġinteg ration
Ġovert urn
Ġpione er
Ġcha os
cont inental
i ology
Ġd up
ĠA chie
st a
ĠJ et
ĠJ ab
ĠV ij
Ġen zyme
Ġ179 0
Ġspread ing
ĠSystem s
Ġutil ized
Ġsummon ed
ĠAnglic an
Ġjeal ous
b led
Ġs ne
Ġp s
Ġaccept s
Ġunc onscious
Ġ177 6
ĠGet ty
Ġguarant ee
aw ak
Ġcat aly
Ġ183 6
Ġcompl aint
Ġsuperv ision
m are
Ġt renches
er man
ĠD iss
os er
ĠK yl
Ġsp y
ortun ately
Ġrecover ing
Ġelement ary
ĠEle anor
Ġanch ored
Ġf ond
Ġbet a
Ġinv ention
Ġmill s
Ġagre ements
Ġbi ology
ĠBart on
Ġjoint ly
Ġcra zy
iffer ent
ĠWis den
Ġreop ened
ĠPrad esh
e ated
f ax
k ward
ĠT yp
ĠB ism
Ġen zym
ĠCl aude
Ġsomet ime
Ġsw ift
Ġbar rel
ĠQu int
Ġhost ing
Ġge ographical
ev o
ĠMcL aren
Ġabund ance
Ġaf raid
ur red
em ia
Ġpro se
Ġsp ore
ĠBl oom
Ġ183 7
Ġsuggest ions
Ġdism ant
Ġgas oline
Ġsymp ath
Ġdreadn ought
om ans
ul i
Ġde ity
ĠK re
Ġloc als
ĠArab ia
m m
Ġw ives
an za
Ġp ant
ul atory
Ġr ud
Ġimp acted
Ġwest bound
Ġri ots
Ġreform ed
Ġexclud ing
Ġcounterp arts
Ġconstitu ency
Ġmetap hor
Ð µ
Ġdis qual
Ġpr ide
Ġbar n
rell a
ĠByzant ines
ĠS ask
ĠC H
Ġg ast
ĠR ise
ĠG ive
Ġrep ly
Ġext ract
ĠBlack burn
ĠAnt illes
ĠHa iti
Ġtouc hed
ur ai
ĠV ishn
ĠZ imb
Ġel ong
Ġcomb ining
ĠItal ians
Ġbackground s
cour t
ĠGuatem ala
ĠT ud
ĠH its
hib ition
ĠCommun ications
Ġinsc riptions
Ġsupern atural
Ġtroubl ed
ess ing
Ġdef icit
Ġmin ers
ĠAm azing
let te
Ġassoci ations
Ġbill ed
Ġcru el
Ġflow ing
Ġcollect or
Ġaw kward
Ġoverl ap
Ġauth ored
ĠFeder er
ĠWeb ster
ĠReturn ing
Ġsket ches
ĠAra bs
Ġcongress ional
Ġt rop
Ġs her
us a
ĠR ut
ĠD ot
ĠL Ã¼
ab ul
ĠCh am
Ġsculpt ures
Ġurg ing
ĠBelie ve
F R
R e
f ork
i op
l ore
l ord
ĠA val
ial s
ĠJo ey
ĠPr imet
Ġpost ing
ĠGl ad
Ġblock ing
ĠAtt ack
ĠValent ine
ĠHerze gov
ĠPrimet ime
e ur
ĠB ronze
ph ae
Ġtr aces
ĠZ agre
bo ats
Ġmater nal
Ġemb ed
ĠIm ag
ĠSand y
Ġfart her
ĠWimb ledon
m id
on ely
ĠC edar
Ġhand ful
Ġsound ing
Ġcreat ors
ĠTel ugu
Ġcomeb ack
ĠB ren
ĠF ork
ul ative
ĠK rak
rit z
Ġun beat
ty m
ĠPl ains
Ġtro ubles
Ġinform s
ogen ic
ĠAT P
g ic
ĠK ind
anc er
arm s
Ġcor onation
Ġfac ial
Ġhard ly
Ġbox ing
Ġterror ist
Ġregist ration
f am
i Ã³n
Ġf eder
ĠA ch
ĠH es
erv es
Ġmel odies
ĠBi ography
ĠBened ict
Ġcros sover
ĠZagre b
b one
m ass
v ia
ĠS ara
ig on
ĠW itch
ul ator
Ġacc ounted
Ġmatch ing
ĠSm art
Ġoccup ying
Ġaw a
Ġrenov ation
Ġs izes
ĠI g
ong s
ĠSt ark
Ġwe ird
Ġatt ain
Ġpr one
ters on
ĠCon rad
ĠBl anc
Ġprin ts
Ġvac ant
ĠGuerr ero
Ġinc arn
isc al
Ġmountain ous
Å¡ e
Ġprest igious
o j
or um
ok a
Ġgener ating
ĠCong o
Ġemb ry
Ġshoot er
Ġresemb ling
Ġlegend ary
Ġfung i
u er
en ic
ĠB oot
Ġg orge
ĠI UC
Ġen erget
Ġtra ff
ĠMan a
Ġfore ver
Ġcampaign ed
ĠSher iff
Ġmotor cy
Ġod ds
Ġconfron ts
Ġconsolid ated
ĠGaz ette
ĠOrk ney
Ġf a
ĠM ath
ew all
Ġcons ec
Ġstar board
Ġstore y
Ġremix es
Ġinteg ral
Ġrecall s
d o
i em
Ġp agan
am oto
ĠF ine
Ġch icken
Ġpl ots
ĠSt oke
Ġeast bound
ĠSy rac
Ġdiss ent
Ġreact or
ĠChief s
Ġseek s
och ond
Ġlect ure
Ġsurve ys
Ġnut ri
ĠB f
Ġcons ort
ĠDe al
Ġiss uing
Ġlik es
Ġlab els
Ġspect acular
Ġdeliver ing
ĠSpe aker
ĠAthlet ics
Ġdevast ating
intend ent
ĠIUC N
Ġc ob
is ely
ĠT at
ĠS aff
ĠM atch
Ġfor get
Ġwh ites
Ġcomp ose
Ġem blem
Ġ183 9
load ed
Ġtermin ated
Ġhall s
ĠHy de
Ġdownload able
Ġrecru iting
an ol
ĠE ly
Ġr ic
Ġres ume
act ions
Ġfact ories
rag ue
ĠReview ers
ĠDor othy
ĠSocial ist
ĠLegisl ative
ĠHein rich
j m
ĠS ap
ĠM off
Ġtra gedy
Ġste aling
Ã¡ r
Ġbroadcast s
Ġcalc ium
ĠExpress way
Ġadvis ory
Ġunst able
ĠCros by
v ol
Ï Ħ
as is
Ġg ases
ĠL iv
ĠHe p
Ġcons oles
Ġgu ilt
ape ake
Ġheav en
Ġnob les
Ġbombard ed
ĠTol kien
Ġpap al
t ically
Ġdeb ts
ĠKh rush
Ġ46 0
Ġbreat hing
ĠFel ix
ĠArchitect ure
ĠTrin idad
b ands
c het
he a
ĠJ ain
ab we
Ġle v
ĠAn s
Ġend emic
Ġdesign ing
ĠAir ways
ĠRos a
ĠiP h
Ġerup ted
ĠGael ic
Ġh ailed
ĠT ul
Ġl unar
Ġhe ights
ĠE lement
ĠV eter
Ġad ul
Ġsub pl
Ġam p
Ġspec ially
ins ki
Ġpo etic
atter ing
Ġrock y
ãĥ ³
Ġswe ep
Ġfaith ful
ĠDian e
v ara
ĠW emb
ĠN one
ĠSt yles
ĠY osh
Ġfirm ly
Ġcorrect ly
p arts
Ê »
Ġb und
ĠH og
ĠY ar
ĠPh ot
ĠEm inem
Ġball ads
Ġdisp ersed
Ġpun ct
ĠVol t
Ġprompt ly
ĠAbb as
Ġneut ron
Ġvir uses
Ġsulf ur
ĠSyrac use
s ay
Ġ à¤
Ġb ord
el ius
ĠB il
Ġg ale
ĠH ort
us k
Ġem issions
ĠPlan ning
ĠComple x
ĠAub urn
ĠKhrush chev
u j
Ġt ying
Ġl umin
ĠD uff
ĠE man
qu is
Ġne uro
Ġprof itable
Ġpress ures
Ġsurv ives
Ġgrad ual
Ġdivision al
Ġmush rooms
ĠFight ing
Ġmelod ic
ĠL ass
Ġkn ife
ĠCom ment
Ġcontin uation
Ġstri ker
ĠMid way
ĠArt ists
ĠMat ilda
ĠVoy ager
Ġunnecess ary
ĠSinc lair
Ġh ire
Ġre pt
ĠR um
ĠR aven
Ġal umni
Ġnot orious
Ġtrans mit
Ġthir teenth
Ġquant um
Ġobtain ing
Ġconsult ant
Ġrit uals
Ġstrand ed
Ġvin yl
ĠH ipp
ĠP om
Ġst iff
ra ged
av ier
Ġro pe
ink s
Ġshould ers
Ġenc irc
Ġquad rup
Ġresid ences
Ġmemb rane
ĠKann ada
m al
p ath
Ġc ure
Ġm aj
Ġtrans mitted
ĠAg re
Ġenv ision
ĠSol id
ĠKr usty
Ġdepict ions
Ġamphib ious
ĠZimb abwe
ĠP od
ĠR ox
Ġpl aque
Ġab n
Ġexp ired
Ġlo ans
ĠAndre a
ĠHerzegov ina
ĠWemb ley
Ġr ats
Ġle ased
Ġcomp elling
ĠWorld s
rick en
ĠGi ro
ĠSix th
ĠRepresent ative
ĠAbd ul
Ġverte bra
Ġcomp ass
Ġwhen ever
ĠSl ayer
ĠClass ical
ĠChes apeake
ĠEff ects
ĠThurs day
Ġf uck
ĠT rent
if a
Ġman ual
Ġ30 5
ĠSouth west
ĠMcC l
Ġpers istent
ĠBook er
ĠLi u
Ġconcur rency
ĠVern on
Ġconting ent
ĠWander ers
Ġfus elage
N T
p a
Ġd ances
ĠH ew
ĠH imm
ĠJ ill
Ġsp erm
Ġcal ib
Ġ183 5
Ġpath s
Ġment or
ĠNat al
Ġuncom mon
Ġbesie ged
Ġmerchand ise
Ġc age
Ġb ust
el o
ĠR ide
ĠL GB
ok en
Ġfl att
Ġed itors
Ġdiffer ently
ĠPer fect
vest on
ĠTrack s
ĠWy oming
Ġdepos ited
Ġpin ned
Ġdisappoin ting
Ġabst ract
ĠBritt any
Ġre acted
ĠH oney
us ions
ĠG M
ĠSt ructure
Ġcomm ittees
iction ary
Ġkingdom s
Ġshif ts
e als
ĠM ant
ĠH ale
ĠChrist ina
Ġhum orous
Ġmag ist
Ġrev ision
lo o
Ġopt ical
Ġmem oirs
Ġaccur ately
Ġdanc er
Ġb inary
ĠH ook
ĠR ough
gh ai
Ġsub mission
ĠSh annon
ah u
Ġdet ection
row ing
Ġgr at
Ġdiscover ing
Ġentire ty
Ġintens ification
Ġ179 9
lam m
ĠTow ards
Ġemotion ally
ĠSes ame
Ġcurric ulum
Ġa uxiliary
ĠS ut
ĠSt reets
ace y
ug ged
Ġpop ul
ĠWar rior
Ġrefer enced
ĠBo hem
Ġcirc ulated
Ġceleb rities
ĠWat ts
Ġdiff ered
Ġp unt
Ġn u
ĠN ep
ĠJ ourney
00 0
ĠV iv
Ġhalf way
Ġhy phae
Ġdeterm ining
Ġdismiss al
Ġreserv oir
ĠRand olph
Ġcoinc ided
Ġbattlecru iser
ĠLeip zig
Ġt idal
ed e
Ġcomp uls
Ġsy ll
Ġperiod ic
Ġcr ushed
ett i
ĠOtt omans
ĠBed e
ĠAber de
occ up
Ġvamp ire
ĠUndert aker
Ġt ides
in ished
Ġp amph
ĠB rom
ig ion
Ġsp iral
ĠVen et
ĠTasman ia
ĠHutch inson
Ġtob acco
r ice
Ġf itness
Ġb ark
ĠG ilm
ĠG ospel
Ġdec oration
ris e
by e
ĠMag gie
Ġconstit uted
Ġdin osaur
Ġbankrupt cy
ĠGust av
6 0
ĠB ates
op ot
Ġexpl oring
ĠChar ac
Ġ183 8
ĠGood man
ĠGal veston
Ġtal ented
ĠShan ghai
Ġgoaltend er
ĠSask at
G A
Ġw olf
ĠP ain
Ġal igned
ram ent
Ġprop ulsion
Ġtre ason
isher s
Ġprol onged
Ġgamb ling
Ġank le
c ill
ĠT uls
et ers
Ġinc on
Ġins erted
Ġlo osely
Ġsat ire
Ġwa ited
Ġmel ting
Ġmob ility
enh agen
Ã° r
Ġtrem end
ĠDecl aration
ĠL ars
orm an
ens en
Ġprot ested
ĠPe ak
ien cing
Ġham pered
is y
Ġb io
ĠHe ights
Ġen roll
ail able
Ġlong time
Ġshort s
Ġident ifying
ĠTor ch
ux e
ĠProv idence
Ġrebu ild
Ġretreat ing
Ġfurn iture
atab ase
Far lane
1 3
ĠA ston
ĠH ipper
ĠW it
ĠN WA
Ġint imid
ĠAl leg
Ġrepl ica
Ġinsp ection
Ġdiscuss es
Ġbal anced
Ġerupt ions
Ġobst acles
Ġecho ed
Ġfru its
Ġt ill
it ian
ĠC ord
Ġl ac
ac ements
ĠB ag
iv orous
ĠF ast
Ġsp rint
Ġvis ibility
ĠEx eter
Ġrank ings
Ġ182 9
ĠClark son
Ġrecru its
ĠPhant om
Ġunbeat en
4 0
K O
b ot
h ot
ĠC it
Ġun ified
Ġinc umbent
orm s
ograph ies
ĠTw ilight
Ġrend ering
Ġweigh ing
Ġcant ata
Ġlux ury
Ġell ip
ĠLGB T
Ġt rench
ĠS aid
ĠD im
ĠG ear
Ġsh rine
ĠWest on
ĠBay ern
ĠRail ways
ĠMore no
ĠSil ent
ĠMagn us
ĠLook ing
pow der
ĠPitch fork
Ġs urn
Ġc aut
ĠC hess
ĠM CC
ĠR ib
um er
ĠE gg
ĠAugust ine
ĠPar ish
ĠTre vor
ĠWeb b
ĠAnim als
b en
ĠS M
ĠO z
Ġsp or
ib an
ph is
Ġpre tend
ĠCar son
Ġgun fire
Ġlik ewise
Ġexcept ions
Ġlab elled
Ġris ks
ĠBre ck
L L
ĠA us
ĠB rett
ĠR ican
ĠL ip
ĠL ik
ĠL uz
ĠG anes
Ġan ten
ĠK ant
Ġint ensive
iz ards
ĠAmeric as
ĠGe ography
Ġsent ences
Ġsol itary
ĠSch olars
ĠDavid son
Ġpred ator
Ġsurf aced
Ġspl its
ĠJul ius
Ġoutf low
Ġcryst als
chw ader
g ren
Ġt ens
Ġsu cc
ast ically
ast rous
Ġfun nel
Ġdress ing
Ġartif acts
ĠCharac ters
l if
Ġf iles
Ġp ipe
Ġh ab
Ġv est
Ġph on
Ġrum ours
ĠSomet hing
u ce
u ana
Ġs ap
Ġp aired
Ġst ricken
Ġbroad side
Ġ184 2
Ġens ued
Ġsn ake
Ġexceed ing
ĠiPh one
1 8
p ets
oc o
Ġ20 5
ater al
Ġtra vers
Ġrad i
ĠPres byter
ĠGl ory
ston ecraft
Ġ41 0
ĠParliament ary
Ġham mer
Ġinfl ation
Ġreleg ation
Ġansw ered
ĠWoll stonecraft
ĠAmaz on
Ġprecurs or
Ġh ast
st op
st age
ag her
ast ed
ĠMar ian
ob il
Ġcontin ually
Ġprogram mes
ĠMer cy
ĠApp eals
ĠNot e
Ġdownload s
Ġec ology
Ġintention ally
ĠCzech osl
Ġsoph om
ar is
al an
Ġto y
ĠF av
ĠY uc
Ġqu ot
Ġph arm
Ġvis itor
Ġobject ions
Ġsett ling
Ġ48 0
Ġliber ty
ĠNaz is
Ġvalley s
Ġlat itude
ĠUk raine
f a
ad ian
ĠD ow
Ġal ike
ĠG entle
ill ance
Ġun av
Ġdis astrous
Ġmin istry
Ġmar ching
ids hips
Ġattract ing
ĠCa uc
ĠProg ress
Ġrecre ation
Ġhaz ard
ĠVishn u
b ons
r atory
en za
an ic
ly wood
Ġdis par
Ġend e
Ġinst ant
Ġown s
ĠAd van
Ġgl am
Ġfar mer
ĠEmp ress
ĠDev ils
agn etic
Ġinsc ribed
Ġspan ning
Ġexcav ated
Ġp atern
Ġd w
ĠS alford
ĠB orne
ĠE g
ĠV ent
Ġdist ress
Ġpat ches
ĠEx change
ĠSl ant
Ġ183 1
Ġhappen ing
Ġreprodu ction
Ġreprodu ctive
ĠNik ol
ĠChem ical
Ġreconstruct ed
ĠBatter y
Ġw rapped
Ġm ars
Ġl ament
ĠN om
ob s
Ġexper iencing
Ġstri ps
ĠSl am
ĠNot tingham
ĠLad ies
Ġut ility
Ġadvis ories
Ġcryst all
Ġaqu atic
Ġunemploy ment
e ason
n ance
ã Ģ
an ch
ĠB ie
ĠP Ã©
Ġpl aza
Ġdeb ates
Ġsequ els
Ġmarket ed
Ġgra ves
ĠBomb ay
Ġmoist ure
i ew
ĠS ang
im acy
ĠO DI
Ġcar riage
Ġhero ic
Ġbelong s
Ġc rick
ĠT ip
Ġrem atch
Ġam idships
ĠNorth umberland
ĠÂ ½
Ġren umbering
ĠWil f
Ġ180 1
Ġdial ect
Ġharm ony
ĠDream s
ĠCop enhagen
b ard
k an
n ie
ut a
ĠE cc
Ġdec ent
Ġwar rior
ĠReg ular
Ġinform al
Ġrob ust
ĠAI F
ĠTs ar
onom ous
ĠWednes day
f inger
k ov
Ġa unt
Ġc aves
ĠSt ro
ge on
ĠSp ike
Ġrepl ay
Ġheav iest
Ġgrant ing
Ġmor ality
ĠAndrew s
Ġacad emy
ĠWinn ip
Ġsubordin ate
Ġcounteratt ack
Ġf rozen
ar ius
Ġb og
an us
Ġst ressed
ĠL ines
ĠN ES
Ġor phan
ah an
Ġstory t
Ġopp ose
ĠComp et
Ġden y
Ġ184 3
ĠSu ccess
Ġthorough ly
ĠYuc at
ĠC age
ĠM oss
ut z
ib ald
ĠUS AF
ĠHer man
Ġexam ine
Ġrow ing
ĠLet ter
ĠMonth ly
Ġmarg inal
Ġconve x
ĠCret aceous
f ight
ot ted
ĠP ret
up s
ĠK w
ĠTh ing
ough ts
Ġdis in
ob e
ĠBar row
Ġmanufact urers
Ġtot als
Ġfert il
ĠChall enge
ĠMetall ica
C l
r ath
Ġc roc
al us
ĠM ell
Ġst ellar
Ġal pha
ran ger
Ġext ras
Ġtown ship
Ġlight ning
Ġbow lers
Ġ181 5
ĠPrin z
Ġenzym es
Ġ ãĢ
st idia
am orph
Ġde ities
Ġdown stream
ĠAd vis
ĠChar ter
ĠRiver a
Ġide ology
hem atic
Ġder ives
Ġens uring
Ġmic roph
ĠId aho
Ġsuspic ion
ĠM az
ĠP ole
Ġsp iders
Ġind ex
Ġimp acts
Ġcare ful
Ġprot esters
Ġlim iting
Ġfail ures
Ġreun ion
Ġapprec iation
ĠBeaut y
Ġcens orship
Ġunrel ated
Ġironcl ad
i ago
er en
Ġm ates
le ased
Ġn atives
est e
up e
Ġar ches
Ġsc iences
Ġinst antly
Ġren ted
Ġhost ilities
ĠTa ft
R NA
ar f
ĠS K
ĠP hel
ĠW orth
ag ements
Ġsu ite
Ġint imate
Ġab ortion
Ġind ef
ik ing
ĠCl aren
erv ing
Ġexpl oded
au kee
Ġident ifies
ĠTest ament
ĠGal axy
Ġmist akes
Ġtall est
Ġmemorial s
Ġisot ope
Ġoverlook ing
Ġconcurrent ly
Ġprosper ity
ĠWinnip eg
Ġf ran
ĠM ys
ĠB uc
ĠD enn
ĠF resh
ins ky
Ġturn pike
ĠNo el
Ġbas al
Ġindic ation
ĠLeg al
Ġjack et
Ġcourty ard
ĠAgre ement
er ie
ĠB ram
ĠL ance
ĠG ott
ard i
Ġinc ap
ĠAc ross
Ġinters ecting
ĠFin anc
Ġreign ing
Ġteach ings
ĠEconom y
Ġcu is
Ġinex per
b ank
Ġo mitted
Ġin herent
Ġh oly
ĠU P
und a
Ġsp ider
ĠV amp
ran es
Ġra iding
ĠRe bell
Ġinf ect
ĠOff ensive
Ġcoin age
Ġir rit
Ġgrav itational
ĠIsab ella
ĠC unning
ac ious
ĠR ag
ĠK ee
Ġsh oes
rit e
ann ers
ĠWar ning
Ġgovern ors
Ġequ ality
Ġ23 5
bor g
Ġcoin ed
Ġreject ion
Ġescort ing
Ġchore ography
ĠVlad imir
Ġbrut al
ĠGeorget own
u um
Ã Ł
Ġw ag
ĠB ly
Ġst atic
ign e
Ġexp end
Ġdisc arded
ĠPol icy
Ġ38 0
Ġmission aries
ĠMiddle ton
ĠMatthew s
Ġcra fts
sk irts
Ġeleph ant
ĠObserv atory
b at
Ġh Pa
ind a
Ġret al
Ġind ie
Ġord in
Ġ85 0
Ġgran ite
ĠKem p
N S
h im
Ġb ast
ĠS ons
Ġro lled
Ġsl aughter
Ġorgan izing
Ġcor rel
Ġstrong hold
Ġcult ivated
Ġgrad es
Ġfood s
Ġconstruct ing
Ġtrust ees
ĠNic ole
Ġretrie ve
ĠT orn
Ġbe et
urn al
Ġwe aker
Ġcomm ence
Ġrel ate
Ġair play
Ġball oon
Ġenjoy able
Ġfirm s
ĠDiv isions
Ġbot tle
ĠCov enant
ĠDart mouth
ĠCai ro
Ġt ang
ĠT ues
ĠR az
ĠSe venth
Ġep onymous
ĠCl ose
Ġbus h
ĠTown s
ĠBon o
Ġsuperv isor
ĠIb n
Ġt in
ĠR OK
Ġex otic
ĠCh o
Ġj umped
Ġout skirts
Ġconst ellation
Ġsl ide
Ġlik ened
aut s
ĠAg ent
Ġ180 9
Ġassum ing
ĠPrepar ations
p us
Î µ
at ches
or row
Ġd itch
ĠM is
ĠR otten
ĠCom merce
Ġrep uls
ĠPl atinum
ĠEurope ans
Ġpers ecution
Ġmodel ed
Ġ179 4
Ġ179 8
ĠLoc ke
Ġcinem atic
ĠRand all
ĠComb ined
Ñ Ģ
Ġc ents
ro vers
ĠG aming
ak ov
rit ion
Ġra v
Ġver dict
Ġam alg
Ġeng agements
Ġmark ings
ĠPar agu
ĠHer oes
Ġcritic izing
Ġpract ition
Ġaccess ion
ĠMaria h
Ġstrateg ies
Ġsuperior ity
ĠLev ine
g ency
k ill
p rin
Ġd ed
ĠS F
ĠB aja
ĠJ ump
Ġcl ips
Ġres isted
ĠPl ain
Ġappe als
Ġcoll ided
Ġprob able
udd y
ĠLam bert
ĠP ist
ĠL yr
Ġup stream
Ġmen u
ĠMad ras
Ġbar ometric
Ġult ra
ĠMem phis
ĠFact ory
ĠB S
ĠL ux
ĠE instein
ĠSt anton
ĠV id
Ġback s
Ġaut o
Ġquestion ing
Ġasp ir
ĠPop M
k ind
Ġf iscal
Ġp ose
ĠM ih
ill as
ĠMar ion
Ġind oor
ific ent
ĠGerman ic
Ġref urb
Ġoccur rence
ĠField s
Ġresemb led
ĠAlexand ra
ĠLeaf s
ĠAltern ative
Ġmetall ic
ĠAgricult ure
en b
ĠW er
ĠE k
Ġun in
Ġpol es
ĠMon ten
Ġnovel ist
Ġimm inent
ĠMic key
Ġsac rific
Ġec ological
Ġtow ed
Ġrepet itive
ĠIllust rated
ĠM W
ĠB ols
Ġst ained
ĠF rost
ĠL oyal
Ġ20 3
Ġteam ed
Ġinf lict
Ġfin anced
Ġtemper ate
Ġansw ers
i ya
Ġw age
al ley
ĠW ords
ber n
ĠChrist ine
ĠBar ack
Ġappe aling
umb led
Ġtre asure
Ġaudition ed
Ġcock pit
Ġdigit ally
Ġcylind rical
ĠHab sburg
ĠAdvan ced
u h
Ġt u
Ġb ind
ĠS ource
id able
ĠP emb
Ġun ions
ĠBro ken
Ġz oo
Ġill umin
Ġemerg ence
Ġintegr ity
at ics
ĠT ouch
ĠC F
ĠNe gro
ĠEr in
ĠSar awak
ĠWork ers
sole te
ĠCow boy
Ġanth ology
hard t
ĠCornwall is
Ġpian ist
Ġs a
it ement
Ġp ond
et ed
Ġdist ract
Ġburn t
Ġtrunk line
Ġgreet ed
Ġineff ective
ĠBism arck
c are
or ers
Ġp its
ĠI st
ĠL akers
Ġatt itudes
Ġtr im
ĠRe bec
Ġunc overed
Ġamb ush
Ġsurpris ing
Ġsle nder
Ġcong reg
Ġdreadn oughts
Ġfacil itate
ocol ate
ĠHass ett
Ġmetab ol
ĠThe od
all i
ĠK et
Ġare n
ĠHar ald
Ġdiss olution
ĠMur d
ĠRev ival
Ġtheat res
ĠGib bs
Ġpreval ent
ĠFranÃ§ ois
1 4
c over
k ers
u ins
Ġc odes
ĠM old
ĠL anding
Ġle ak
ond heim
Ġinf lamm
Ġpersonal ities
ĠCas ino
ĠEmer gency
Ġkidn apped
Ġp uzzle
Ġst alled
ĠR as
Ġse ab
ĠV ari
Ġins ight
ĠEl vis
sp e
Ġtechn ically
Ġmuseum s
Ġyield ed
Ġforb idden
ĠClaren ce
ĠB reat
up er
Ġunder going
ĠÂ ²
ĠMcC le
Ġ181 9
Ġsuperv ised
ĠMort al
agu ar
Ġupd ate
Ġaffili ate
ĠV ett
Ġout post
oin ing
ĠX en
Ġpost season
Ġ22 5
Ġcr ater
ĠRock ets
Ġviol ated
Ġdomin ate
Ġsevent y
ĠAlb ania
Ġunf inished
Ġsomew here
ĠRest oration
ĠVerm ont
Ġdestruct ive
ĠLangu age
w aukee
Ġ ç
at ile
Ġb ail
Ġre work
ĠA ce
and ra
Ġex iled
ress es
Ġass erts
Ã© r
ĠÂ ±
sh ine
ĠAm ster
gr at
Ġ181 4
ĠBat ista
Ġexpress es
Ġnob ody
Ġcool ing
Ġinnov ation
Ġfrust ration
Ġpeas ants
Å Ľ
Ġf ool
Ġb oring
ĠP ond
ĠK au
Ġout n
ĠEn c
ĠIs m
Ġcor al
Ġvill ains
ĠMart y
Ġpot assium
Ġbene ficial
Ġstra ined
ĠBry ant
ĠFace book
ĠShep herd
ĠWals h
at l
ĠN g
Ġmus k
aj i
ĠCol t
Ġintens ify
Ġcoordin ated
Ġobsc ure
Ġmini ature
ĠFil ip
ĠHep burn
Ġenvision ed
Ġb anner
Ġm a
ad vant
ĠI B
Ġpl asma
pp e
Ġad olesc
ĠLe h
Ġmus c
ĠZ ach
Ġgun nery
ĠEurop a
ĠCal iph
Ġproblem atic
Ġsex es
Ġcommission er
ĠOld ham
ester ly
Ġuncom fort
Ġprinc ess
Ġspokes man
Î »
ĠIn form
ĠK any
Ġcl ients
Ġgroup ed
Ġaff ects
Ġlight ly
ĠNe ville
ĠGreen land
Ġdefend ant
Ġintercept ion
Ġcomplic ations
ĠAmb assador
Ġcamoufl age
a ic
v als
Ġt uber
le igh
Ġst ems
ĠR ac
ul ance
Ġunder way
ĠPl ans
Ġsix teenth
Ġvis ually
ĠPer iod
Ġmother s
Ġdisp osal
Ġwebs ites
Ġunexpected ly
ĠBott om
ĠAberde en
v ana
ĠT able
ĠOn o
Ġexp ecting
Ġaut onomy
ĠEd g
Ġelect rom
ĠMan it
Ġadm iral
field s
Ġden ounced
ĠLes ter
Ġmillimet ers
bu ilding
Ġconsul ted
w alk
ĠH itch
ĠG C
ĠN HC
ĠO kin
Ġdis hes
ĠAr j
Ġob solete
Ġprov oked
vers ion
Ġfle eing
Ġtext ure
Ġcert ification
ĠLand mark
ĠBark er
Ġecclesi astical
ĠCunning ham
p ole
Ġn ave
ong o
og le
Ġover c
Ġpre jud
ĠGro ves
Ġviol in
Ġ179 3
gl ades
lyn n
ĠMoff at
Ġe ch
iv ities
th y
ĠE ston
ag ogue
ri o
ip se
ĠU g
Ġdis organ
ĠThom son
Ã¡ l
Ã¡ s
ĠÃ ĸ
ĠGold man
que z
Ġsusp ects
ĠGra ves
ĠRod gers
Ġvirt ue
ĠRa o
Ġculmin ating
Ġoxid ation
ĠShir ley
Ġh ij
ĠT aunton
ir ming
ch us
Ġâ Ĩ
ĠV ed
Ġoff s
Ġfl uct
ĠSc outs
ax ies
Ġcult iv
Ġcontrib utor
ĠBu ild
ĠRel igion
ĠJenn y
ĠEls ewhere
d ays
r ill
Ġl uc
ĠB elf
ĠV HS
ath i
Ġmon k
omb at
II I
Ġ181 0
Ġexplos ives
Ġcart oons
ĠCart man
ĠEver glades
Ġdeliber ate
Ġchrom os
Ġpsyched elic
ĠAmster dam
ĠP resent
ist ice
ĠSt am
Ġcent red
ĠSh arp
Ġdep ressed
Ġvi able
ij uana
Ġdead ly
ĠFar mer
ĠInst r
ĠTun is
Ġenerget ic
Ġs op
Ġd rought
ĠT S
ĠT z
ĠL ing
ĠE bert
Ġsu ck
ĠY uk
ep ers
ĠCon versely
ĠEx c
Ġacqu iring
ĠAcad emic
ĠProdu cer
Ġdoub ts
Ġattract ions
Ġshif ting
ĠBols he
c ats
l ining
Ġ ~
st en
ĠP D
ast ing
Ġposs ibilities
Ġground ed
ĠBr uss
Ġsurround ings
Ġtarget ing
Ġhun ter
Ġdispl aying
ĠMot ors
ĠRebec ca
I P
h oe
ĠCol ony
ger ald
ĠWal ton
ĠEvery thing
Ġadvis or
ĠStri ke
Ġc um
it ius
id as
Ġr all
Ġar che
Ġinter changes
Ġchar m
ĠWe in
Ġmid st
ĠSup port
ĠBra un
ĠCongress ional
Ġ177 5
ĠSurviv or
st ones
Ġl ocks
ĠI gn
Ġal gor
ĠN uclear
ag ua
Ġv ector
ĠCh amp
Ġwhe at
Ġup held
Ġhum ili
ĠHigh land
aun ch
ĠPe ggy
ĠBosn ian
ĠFitz gerald
Ġspar row
ĠNig el
ĠBorne o
l und
È Ļ
Ġt ips
ĠB rent
ĠI P
Ġconst raints
Ġjust ified
Ġamb ition
ĠGill ian
Ġmerc ury
Ġfing ers
b ath
ĠC asc
am bo
ĠK ip
ost ic
ĠSh oot
Ġback wards
onst ruction
bour g
Ġplanet ary
Ġstrike outs
ĠNap les
ĠAchie vement
ĠFinanc ial
ĠT et
ĠM ets
ĠB rest
ĠD ang
ch ron
Ġinc ent
Ġfe as
ĠSh op
its u
Ġobs erver
ĠLind say
ĠRel ief
ĠDick inson
ĠErn st
ĠGene va
Ġparas ites
ĠHimm ler
Ġw and
Ġh ood
ĠP ione
ĠL ocated
ok i
Ġdis advant
fore st
Ġ15 00
Ġtw ist
ĠMed ieval
ĠRh y
ĠEv olution
Ġdemonst rations
Ġelimin ating
Ġconsc ience
Ġupgrad es
Ġc ivic
ĠT aking
ĠM ales
et ically
ĠI OC
ĠR ita
ĠG ul
ke f
Ġchar itable
Ġinf ra
Ġcost ly
ĠKey nes
Ġrob ot
ĠConc ern
Ġanticip ation
Ġsurge on
ĠMarl borough
Ġthe ology
on ne
ar an
ĠA V
ĠC yn
ile m
Ġref use
ĠGod win
Ġagg ression
Ġpan ic
Ġprogress es
ĠBrun o
Ġflex ible
ĠHumph rey
ĠTud or
Ġs odium
ed o
Ġen act
Ġnumber ing
ĠCl imate
Ġprot agonists
Ġindivid ually
Ġcolumn ist
haw k
ĠFern ando
b eck
Ġp iv
le en
ĠS ounds
ĠC ensus
ĠM orm
ĠR ash
ĠN ero
ĠCh ak
ass ment
ism atic
ps il
Ġpar ap
iment al
Ġcapt ains
ĠNot re
Ġcust omer
Ġcorrespond ent
Ġspons or
anth a
ĠNob le
Ġreward ed
Ġredes igned
Ġdischar ged
Ġsus cept
ĠMunicip al
ĠÎ¼ m
tym ology
Ġm aid
ĠB ax
iv o
ĠP ill
ĠMar se
Ġaddition ally
Ġve in
Ġconcept ion
ĠOl ivier
Ġdefend ants
Ġpun ish
ĠDet ective
Ġimpl ied
Ġsight ed
Ġreper to
elest ial
il ib
ĠC ertain
ĠL one
ĠN avig
ĠIn ch
ĠIn stitution
ok u
ĠCan ning
Ġgovernment al
ĠMil waukee
Ġplant ation
Ġ179 2
ĠHon ours
ĠVi ol
Ġinterpret ations
Ġrot ating
Ġalter ations
Ġcontinu ity
Ġol ive
o os
ĠC ust
ĠM oses
ĠH ert
Ġst aging
ĠD ru
th on
ag asy
ĠPh ase
Ġdev otion
ĠWil kinson
ĠBra ves
Ġcann ons
anth rop
ĠMalays ian
Ġexcav ations
ĠLiter ature
ĠSalv ador
ĠGlac ier
ĠPresbyter ian
ĠBruss els
2 5
ĠP os
ant i
ab y
Ġout line
ĠY ah
Ġfound ers
Ġarch ipelago
Ġi OS
ĠSant iago
Ġlad der
ĠRebell ion
ĠPopM atters
nd on
Ġb ite
Ġd ried
Ġd rif
ĠI TV
ir ling
ĠW S
Ġj un
Ġanim ators
Ġage nda
ĠAct s
ĠAle c
Ġsevent eenth
ĠEver ett
acc ur
Ġmit ochond
Ġtribut ary
ir ie
ĠH our
ĠK oh
pl ant
Ġup t
Ġsub du
ĠHigh lands
Ġcat ast
Ġtouch ing
ĠRome o
Ġastron omers
Ġclim bs
Ġprofession als
Ġfulf ill
ĠMult ip
ĠS I
ĠS ale
ĠC umberland
ut ies
ĠCl iff
app ropri
Ġke eper
Ġmamm al
Ġinterven e
ĠPay ne
Ġembed ded
C ube
t ail
Ġp ec
Ġm our
Ġas ylum
ĠR onnie
ĠE rik
ĠO uter
ĠSe v
ĠMar co
Ġdec ree
yl on
ĠFre eman
ĠWild e
Ġsan ction
Ġow ed
ĠJohann es
Ġgram mar
R L
Ġc ites
Ġh orm
ĠB P
ĠThe me
Ġsu its
Ġun changed
ans en
ek s
Ġmod ification
Ġeight y
Ġwall ed
Ġcou ples
Ã¼ hrer
Ġvac ation
Ġdiver ted
Ġrede velopment
ĠBrid g
ĠHi ros
v re
v ie
il ated
ĠH uff
ĠW enger
ĠN et
Ġch ords
Ġfe eds
Ġrel ates
Ġsome body
Ġhel met
ĠAm bro
na i
Ġscript ed
Ġninet een
ĠParalymp ics
ĠRegard ing
f ielder
s m
Ġc ope
Ġin accur
Ġm asters
Ġd uel
le af
Ġl ent
Ġpl ains
Ġne o
reg or
ĠChap lin
Ġcatch ing
ĠShank ar
ĠSoft ware
Ġsophom ore
Ġ é
Ġt iger
Ġl ig
ĠM are
art et
Ġcont amin
Ġpe er
ĠWh ig
Ġ21 5
Ġfact o
Ġstation ary
ĠSecond ary
ĠCamb odia
ĠAlb anian
Ġpsych ology
Ġ178 9
ĠEst ab
Ġsymp athy
Ġtom bs
ĠClif ton
Ġc ree
Ġd irt
ber ht
ĠAll ison
ĠMin aj
Ġ180 4
Ġfix ture
ici ary
Ġsupple mented
ĠClay ton
Ġrehears al
Ġhomosexual ity
ĠCrom well
ĠChop ra
Ġcon grat
ĠJ ut
Ġcom edic
ew ood
Ġcl ade
Ġtr unc
Ġgal axies
Ġru in
ĠLegisl ature
Ġprest ige
Ġcorp se
Ġhab its
h arm
z an
ist ani
ab i
Ġapp lying
ĠBro oke
ĠDav en
Ġwid ened
ĠCour se
Ġ182 4
Ġ182 5
ĠSol o
ĠTim othy
Ġresist ant
Ġble w
Ġalleg iance
ĠIran ian
Ġmim ic
Ġbicy cle
ĠAzerbai jan
p ers
at ro
Ġm ould
st aff
om al
ĠL ob
ĠL ana
ĠK ell
ĠAr gy
ĠSh ock
Ġmin erals
Ġfin ed
ĠRec ent
Ġmer it
ĠSav oy
Ġdisagre ement
ĠMaj esty
enz ie
ĠContin uing
r ÃŃ
ĠM itch
ĠH ag
Ġat om
iz arre
ĠCal d
ĠAb yss
Ġhit ter
Ġneg atively
Ġpick s
Ġ179 5
ĠNass er
Ġredesign ated
Ġl aser
ĠB iden
ĠP rague
Ġsh y
ath am
enn es
ĠCharl eston
Ġcriminal s
Ġscr ut
Ġbapt ism
in itely
ĠT ik
ĠS uk
Ġl ighthouse
ĠI rene
ĠR ings
Ġdis orders
ob ic
Ġwar ming
Ġdem ise
ĠMcC oy
raw l
ĠSal am
Ġmind ed
ĠCoast al
ĠRele ased
ĠPak istani
Ġmunicip alities
ĠDest roy
Ġobvious ly
ĠLion el
ĠPhys ical
Ġbure auc
i u
Ġ u
ĠT il
ĠT osh
ur us
ĠW hed
ĠAn alysis
Ġair ports
Ġrest ing
Ġredu ces
ĠGo ing
ĠTri ang
Ġhun ted
ĠWhe el
Ġconsult ing
ĠVick ers
Ġrehabil itation
m ir
p ro
ĠS ally
ĠS earch
ĠB enson
un s
Ġbu ck
any a
Ġmat rix
ĠGr im
Ġdev ot
quar tered
Ġhun ters
ez vous
Ġsatisf ying
Ġoblig ed
Ġsurve illance
ĠiP ad
ĠCase y
Ġexagger ated
ĠFow ler
ĠDors et
M C
he ed
ic ious
ĠB acon
ut nant
Ġhe x
hes is
ĠZ ack
ĠFl otilla
Ġdam s
Ġpar an
Ġglac iers
ĠWolver ines
ĠRever end
Ġ q
it ivity
ĠT otten
Ġn mi
ĠK art
ik ini
amb a
ij a
Ġsen ators
Ġmission ary
Ġ179 7
Ġ182 1
Ġtrend s
Ġphenomen a
Ġbreat h
Ġin und
Ġm aiden
Ġre int
ol ation
ĠG ob
ĠN D
ĠU tt
ĠV ander
ĠCom ing
Ġsl am
ĠHer c
Ġtechn ological
ĠMal agasy
Ġrelig ions
Ġ180 5
ĠHel ena
ĠÎ ±
Ġkick off
ĠAh mad
ĠMacD onald
Ġtremend ous
N G
b ral
Ġthe rap
ĠB elt
ig ue
ĠE cho
Ġme g
Ġins ert
Ġlast s
Ġdem ons
Ġbas ically
Ġstat istical
Ġinvest ments
Ġemploy er
Ġdepart ing
Ġceleb rating
Ġ34 0
Ġprol ific
Ġbutter fly
ĠColomb ia
Ġinherit ance
or an
Ġh airs
Ġn ude
Ġwh olly
ra ul
ist on
ĠK aw
ĠâĢ ĳ
Ġout rage
Ġmon itors
Ġed it
Ġhy mn
het amine
Ġ178 0
ĠSand ers
Ġundert ake
ĠLet ters
Ġwars hip
Ġtal ents
Ġenf orced
ĠBuff y
Ġcasem ates
Ġreperto ire
b uck
i w
t ures
on al
es ome
ĠC B
Ġg ill
Ġg lee
ill ion
if iers
ĠK ombat
ĠSt re
Ġ20 6
ĠAr row
Ġso ils
Ġrel inqu
Ġday light
ĠDe e
Ġtreat ments
pris es
ĠTown send
Ġ183 3
Ġmind s
Ġmand atory
Ġretros pective
ĠSaff ir
om ac
Ġe man
Ġst ir
ĠW ord
Ġsp ells
Ġlater al
Ġcampaign ing
ĠÃ ĵ
ih an
Ġrac ism
ĠCly de
Ġm ol
Ġh aven
Ġg low
ĠL Ã©
Ġsup reme
Ġsing ular
Ġins ign
ĠCar m
ĠSch u
ĠOff ic
Ġ180 6
Ġess ays
Ġspect ral
Ġtru ce
Ġexplo it
r ar
in ers
ĠThe mes
ĠR ising
ish a
Ġret ains
Ġme al
ll a
Ġshort ages
Ġexpl ores
uff ed
ĠGro ening
Ġphot ographed
ĠArm oured
ĠHung arians
Ġfolk lore
Ġcompens ate
ĠMoz amb
ĠWilm ington
ĠâĨ Ĵ
ar ios
ĠF ew
ek a
ĠPro per
ĠGeor ges
Ġcor rupt
ĠGl aston
Ġnight cl
Ġbar rage
Ġconclud e
Ġathlet ics
ĠGriff ith
ĠTitan ic
Ġsear ched
ĠEuras ian
Ġcroc od
es is
Ġl uck
ĠH ole
Ġst re
ĠV il
Ġdes k
Ġvol ley
ĠKn own
ĠWrit er
Ġappoint ments
Ġvolunte ered
Ġfold ed
Ġuncomfort able
at aka
Ġh iring
ĠT ate
ĠT ry
Ġhe aling
ĠL if
od ont
ĠK ab
Ġsp r
pt ical
ĠY o
ph abet
Ġtra gic
Ġrest oring
Ġcommun ists
ĠTer ror
Ġmax im
ĠPic ard
Ġanx iety
el ly
Ġg ymn
ĠP oul
ĠR C
Ġsc rew
Ġequ ation
Ġang ered
Ġdefin itive
Ġwel ding
ĠEug en
Ġunanim ously
Ġsher iff
R E
Ġthe sis
ĠS EC
ĠC rew
Ġn an
Ġse ap
Ġfl ames
ox ide
less ness
ĠBet a
Ġbank ing
ĠTues day
ĠC ull
Ġg onna
ĠD as
Ġcon gestion
Ġex its
ĠPr att
Ġemploy ing
Ġimm ort
Ġboard ed
Ġmaster piece
Ġaim ing
ĠHan over
Ġsculpt or
ĠExt ra
ĠMaur itius
Ġeval uation
f oot
g il
ĠC oin
ĠH BO
oc ative
ov al
ĠCon an
ĠBy r
ĠGu in
Ġcomment ator
Ġfinanc ing
ĠCr iminal
Re illy
p end
r ade
ĠT ah
ĠF ry
Ġle isure
ron es
ĠMon k
Ġpick ing
Ġdecor ations
Ġlegend s
Ġconfirm ation
ĠDaven port
ĠH ogan
Ġst ole
ĠF oss
ĠG le
Ġem ission
Ġview ership
Ġtrad ers
Ġbreak away
ĠPat terson
ĠEr lew
ĠColon ial
ĠStevens on
Ġtack les
ĠInn oc
Ġcontend er
ĠSuff olk
Ġdisappear ance
Ġvertebra e
ĠGlaston bury
ĠErlew ine
g ra
Ġw avel
it ism
Ġl ing
ĠI w
ĠN W
ĠN ell
ĠY es
Ġinter fer
ĠRe vel
ĠIs s
Ġvarious ly
Ġfort unes
Ġang ular
Ġconven ed
ĠNad u
Ġundef eated
Ġelong ated
1 7
w ord
ĠT oul
im ated
ubl ished
Ġra ided
ĠPl uto
Ġdiffer ing
ĠMac don
Ġ300 0
Ġpal m
ĠNick el
ĠAlam os
Ġware house
o it
Ġ ^
ĠP t
ĠTh ur
ĠEn s
gg ing
unk ers
ĠCont rovers
Ġaltern ating
Ġir rig
Ġ61 0
Ġdecre asing
Ġb il
ĠAl ger
act ory
Ġdec ks
Ġcar b
Ġpop e
ĠCar ne
ĠMal vern
Ġcommission ing
Ġnom inal
ĠRodrig uez
ĠHond uras
S h
as urer
ĠB onnie
ĠCh ip
Ġen velop
Ġ27 5
ĠBo one
ĠBlack s
Ġesc aping
ĠSan ct
Ġprem ises
ĠAnt io
ĠCatholic ism
ĠPot omac
roph ic
Ġkilog ram
Ġunanim ous
Ġaccomplish ments
ĠKyl ie
C onn
ar ium
ĠT ran
ĠR umble
ĠW augh
ĠIn ner
ip ed
Ġy e
man ship
ĠRe x
Ġgro ove
Ġinv ade
Ġcar c
uk ov
Ġtreat ing
Ġproduct ive
Ġautom obile
ĠNi agara
Ġingred ients
1 6
e i
m ere
m aker
ol son
ĠR esc
Ġun se
Ġapp ar
ook s
Ġ29 0
Ġmot iv
Ġcommercial s
ĠCart oon
ĠBol lywood
Ġmal aria
ĠBreck in
b ins
Ġ ions
Ġo val
ro be
ĠM ud
ol and
ĠH orses
ĠK atherine
Ġover head
ang o
Ġdown grad
ĠAm ber
Ġdest inations
Ġgrad uates
Ġrehears als
ĠNass au
ĠKany e
Ġwavel ength
w aters
ĠC av
ĠB ene
ĠF ritz
ich o
ĠK ash
Ġout right
Ġref ined
rig an
Ġten or
Ġcriticism s
ĠLen in
ĠT in
ĠP oor
ĠG ir
ĠG oes
ran ged
af i
Ġcompet itor
Ġsex y
ĠFort ress
Ġsal mon
Ġprec isely
ĠHy der
Ġglob e
Ġastron omical
ĠCre ation
Ġoverlook ed
ĠSche er
eli hood
ĠRook ie
Ġdup lic
Ġo urs
Ġc ass
Ġd well
le z
ĠS as
ĠP ound
Ġr amps
Ġpl enty
ĠSc ream
Ġpeak s
ĠFle m
Ġbad ge
Ġge ographic
ĠBor is
ĠRain bow
Ġpip eline
Ġimprov ised
u o
Ġ ul
ĠT ren
Ġst int
ĠD irection
ĠE z
old ing
ves ter
Ġcomb ines
Ġadm it
ĠPer haps
Ġbomb ed
ĠBen ch
ĠInter active
oura ged
ĠBrad y
Ġeth anol
Ġconvin ces
Ã± o
haw ks
Ġscr atch
Ġg lands
ver age
em ann
ĠPol es
ĠTom atoes
ĠMill ion
ĠOs wald
Ġcatch y
ĠPhill ip
Ġoverth row
ĠWess ex
2 4
ĠC ory
id y
ĠD ix
ĠF ig
ian ces
ia e
Ġfl anks
Ġexp ans
Ġfin ishes
Ġcult ivation
Ġdev il
ĠGi ov
ĠTal bot
ĠJar rett
ĠSac rament
ĠInvest igation
ĠPhel ps
ĠOkin awa
ĠN ir
op a
Ġr het
ĠSt ones
pl us
ident ified
Ġany way
ĠCol ts
Ġcy t
ĠBer ger
Ġyour self
ĠHun ters
ĠAv atar
Ġremix ed
Ġfur ious
Ġturb ine
Ġchlor ide
ĠVett el
c s
Ä ĳ
ent on
ĠI ch
ĠE state
Ġpro st
ĠUn cle
Ġend ured
ll er
ĠCal ais
ĠAb ove
yn t
ĠQu ick
Ġcouncil s
ĠEp stein
Ġairfield s
ĠParalymp ic
ĠC over
ĠB A
ĠI z
ĠR ous
ĠW igan
Ġk in
rop ods
Ġdet ention
ĠPr act
Ġste amer
Ġprem ature
ĠLaw s
Ġ183 4
Ã¸ r
Ġboot s
Ġremaster ed
l ov
Ġb urg
ĠA in
ig ma
os o
Ġhead quartered
ĠQu ater
iec es
book s
ĠBed ford
ĠSoph ia
Ġsty led
ĠLik ewise
ĠLyr ically
ĠManit oba
ĠAmbro se
y ch
ĠC otton
ow itz
ĠV ision
oy ne
Ġbel ly
Ġcomplex es
Ġlog ic
Ġoverwhel med
Ġdim ension
ĠCrow ley
ĠVaugh an
he art
Ġa irst
is se
ad h
ĠB ung
ec uted
ĠF erm
Ġmon etary
Ġbro w
Ġprop elled
ett o
Ġcoll ar
Ġreason ing
Ġmant le
Ġinterf ere
Ġcuis ine
d ad
Ġt s
us ement
ĠN E
ĠK ru
Ġpres eason
ern er
ĠEl iot
Ġexc itement
Ġconsum ers
Ġrig id
Ġrevel ation
Ġfor aging
ĠH ib
Ġag round
Ġinf ections
ĠHam let
ourn als
rag on
ĠRes erv
Ġfresh water
Ġrend ezvous
ĠMultip le
ĠMacdon ald
ĠQuater mass
Ġf ence
ĠI M
th ms
ew orth
ap arte
ĠU se
ond a
Ġover run
lect ric
Ġdep osed
ae a
ĠSy nd
Ġlet ting
ĠGar rett
Ġagg ress
ĠPo et
Ġmo ons
Ġveget ables
Ġphr ases
Ġcompat ible
Ġump ire
I n
ĠA FC
ĠM T
Ġshe er
ĠRe qu
ĠRe formation
ĠBe ech
oph on
Ġblood y
ĠMa o
Ġmorph ology
b ase
l ar
Ġt iles
al is
ĠM uss
Ġal ign
ĠG amb
ĠCh ange
ft ime
Ġshow case
Ġsepar ating
Ġamb itions
ĠEver ton
ĠRoc kef
n otes
ĠC ope
ĠL ec
ĠN ina
Ġover ly
ĠChar ity
Ġpress ing
Ġbar rels
Ġlif elong
Ġillust ration
oz o
Ġdecor ative
Ġprosp ects
ĠRat ings
ilib rium
ĠA ccess
Ġl ions
ĠN K
her ical
Ġj umps
vi ated
ĠMe gan
Ġrest art
Ġcur tain
ĠCanad ians
ĠRep orter
sc he
ãĥ «
Ġ182 8
ĠMir anda
Ġign or
ĠCirc us
Ġchemical s
ĠKer ry
Ġtiss ues
ĠExper ience
ĠÏ Ģ
ĠYucat Ã¡n
b les
el ope
Ġn ons
ly ss
ĠL ap
ĠO K
Ġkn ights
ĠRe in
ody n
af ia
Ġ31 0
ĠMcC ay
Ġimpl ies
Ġstret ching
Ġpreced ent
Ġvolcan oes
ĠRey es
Ġlad ies
Ġpron unciation
ĠAnat omy
Ġderiv ative
abul ary
Ġcrick eter
Ġw is
Ġc ripp
Ġp all
ĠB uzz
Ġbe ef
Ġinter vals
ĠCom et
Ġrest ed
Ġdet ained
ĠAnd ri
Ġ179 6
ĠHere ford
Ġspok esp
ĠRang er
ĠCole man
ĠHem isphere
Ġautobi ographical
ĠBuddh ism
nae us
ĠPix ar
c ons
er un
Ġw rought
Ġo mn
Ġin appropri
Ġd atabase
ĠT ac
Ġn oun
ĠI o
est a
op ath
Ġch ased
lud es
ĠSh Åį
ik ovsky
ling er
Ġtotal ing
Ġfif teenth
ĠHam m
Ġadminist rator
gr ass
ba um
Ġexerc ised
ĠRem ember
ĠRow land
Ġreluct antly
Ġcatal ogue
Ġpip es
Ġmasc ul
Ġunre leased
Ġlibr aries
ĠMoroc co
ĠBelf ast
B L
n ell
ĠR KO
ĠD res
ce ans
and ro
Ġcons ume
Ġchar ging
ĠIs h
Ġhost age
ĠBr as
ĠNort heast
ĠSum mit
Ġhyd raul
Ġfear ing
Ġhear ings
Ġfisher men
ĠKub rick
Ġpist ol
Ġchim ney
Ġreprin ted
ĠTotten ham
ĠMozamb ique
B i
l ian
l ash
Ġp od
ro le
st reet
ĠM uk
ĠW ine
ĠG ris
ĠAs hes
ĠPr ide
Ġlist ened
Ġbar ons
Ġvill agers
ĠMil ky
Ġneg lected
uff s
Ġ181 6
ĠCarl isle
Ġhero ine
Ġ74 7
Ġrequest ing
ĠTob y
Ġjew el
ĠIndivid ual
Ġsurn ame
Ġstoryt elling
Ġthe ft
or se
ĠP R
ĠR AR
Ġse als
ĠK iller
pl ate
Ġgu idelines
ĠEd dy
ĠHol iday
ĠTw elve
Ġess ence
Ġplate au
Ġassum ption
Ġinver te
ĠKarn ataka
p ox
al ach
ĠT H
ĠB agh
ĠR it
ĠF ay
ĠF lynn
ew ater
ĠV it
Ġcomp ares
Ġinter mitt
ĠMar ina
ĠAr r
Ġtur tle
Ġexec ute
ĠRun ning
Ġteen agers
Ġtribut aries
ĠLore n
ĠVul can
Ġconfisc ated
ĠWhed on
g io
g iving
ĠB ound
Ġbe es
ĠL ark
um my
ind y
ĠBrit ten
az ed
Ġmat hematic
ys c
Ġclear ance
ĠLy on
Ġflo at
Ġconsp ic
Conn or
u ity
Ġl ag
ĠR ory
ĠG an
Ġex ported
io let
ual a
ll an
Ġext r
ĠBy ron
Ġstand ings
Ġemploy s
Ġassist ing
Ġconver ting
ĠLes nar
ĠCru ise
Ġwreck ed
ĠPriv y
Ġmotif s
fam ily
Ð ½
Ġd irty
ĠM und
Ġg ut
ĠI D
Ġst amp
un al
ĠN ike
ĠK ron
te f
ĠTh ous
aun t
Ġadm ir
ĠMy ers
ĠEv a
Ġge ological
ĠFact or
for ward
ĠConserv atives
ĠBuch anan
Ġrer outed
Ġtraff icking
2 8
Ġb ike
ĠT rig
oc hem
ĠAt omic
Ġconc ession
ĠOr ion
Ġdra gged
Ġche ese
ĠApp eal
Ġchor al
Ġdepth s
Ġrenov ated
ĠNord ic
ĠBreckin ridge
s er
in ating
ĠA G
ĠM s
ur ities
ĠU rug
ĠV ale
are z
ĠRe venge
Ġmus ically
ĠPh on
Ġmid fielder
Ġpost ers
ĠSte phan
ĠPe pper
ĠPet erson
Ġmeasure ment
Ġspin ning
ĠNapole onic
Ġid ol
Ġincred ible
Ne ill
Ġaug mented
ĠExam ples
Ġw ise
Ġp uls
Ġn i
ĠM aking
ĠH ang
ĠP av
ĠG olf
ĠSt range
ĠV atic
Ġver b
ĠMin h
ĠEx it
Ġsuper b
Ġabs urd
Ġliber ation
ĠSa igon
Ġexcav ation
ĠSpart a
acer b
ĠBri ar
ĠZh ang
Ġseiz ure
b eth
g one
h anna
Ġb izarre
ĠB ian
ĠK umar
Ġar ise
aus es
Ġgun powder
Ġide als
rict ion
ĠRes olution
Ġdi ocese
Ġrow ed
Ġtoler ance
ĠJur assic
Ġin ception
ir acy
ach y
ĠSch ne
Ġprec ision
ĠHel m
Ġadvant ages
ĠKen ya
ĠRub y
ĠSpart an
Ġcliff s
Ġsect ors
Ġinev itable
ĠRockef eller
b anks
Ġc ort
ĠT rial
ĠA e
Ġpre hist
ring ing
Ġcr ude
ĠPhil harm
Ġneg lect
ĠSal em
ĠBu ilt
Ġadj usted
Ġvac uum
Ġdescend ing
rep rene
run ner
ĠGarc ia
Ñ ģ
es i
Ġto ys
Ġth res
Ġn ic
ĠB oul
Ġst ays
ge ance
oun ge
ĠVol can
Ġsurpris ingly
Ġtun ed
Ġtun es
ĠLy d
Ġimag ine
ĠLow e
Ġinnov ations
Ġsatir ical
p m
y ards
Ġt ally
as ian
Ġto ps
Ġm g
ĠK rat
ĠV in
ars ity
sh aw
Ġcandid acy
Ġsupp ressed
Ġdiam onds
ĠRap ids
ĠFem ales
Ġtriang ular
ĠSud an
p oints
Ġd od
Ġat he
Ġcont empt
ĠAn ime
Ġend uring
ĠCl an
Ġpass ive
Ġfin ances
Ġlist ings
ĠEm erson
Ġarg u
ĠRom antic
Ġexpress ions
ĠNic ar
Ġscholar ly
ĠSid ney
Ġpier cing
cyclop edia
k as
it ations
ĠT ale
ĠW ins
ag ram
Ġsh out
Ġcomm issions
ons on
Ġgovern ance
Ġequ ity
ĠSch war
ĠPaul ine
Ġ39 0
ĠSil va
ĠLo op
Ġinstit uted
Ġbenef ited
Ġty res
Ġsuspic ious
Ġeject ed
Ġpige on
Ġdowngrad ed
m ination
Ġt il
ĠN os
Ġ201 7
Ġimp ending
Ġappro ve
ĠWe aver
Ġeconom ically
ĠGall ip
ĠInc re
Ġsurvey ed
fle et
Ġfram ed
ĠSquad rons
Ġepit het
Ġsubpl ot
r usted
Ġt a
Ġp ic
ĠC L
ĠL uk
ack er
our g
Ġadv iser
ĠSm ash
Ġsuff rage
Ġbar riers
ĠOl ga
ĠCharl ton
Ġlov ing
Ġhal ftime
ĠKit ty
ĠLud wig
Ġmasc ot
Ġf auna
es y
Ġd unge
om atic
ia o
ĠHe ather
ĠBl ind
Ġins ists
Ġkill ings
Ġke el
Ġris en
Ġcompos ite
Ġ44 0
Ġextra v
ĠCob b
Ġorn ith
ĠDub ai
stad t
w ith
ĠS iber
ĠP eck
ĠL ic
Ġch icks
Ġab bre
form ed
Ġear nings
ĠBe aver
Ġattack ers
Ġgu ides
Ġmar riages
ĠMac Farlane
ĠBon aparte
Ġconqu er
Ġclean ing
Ġsucceed ing
Ġanalys es
shadow ed
Ġpatern al
f ried
t or
Ġm aker
ĠC rete
Ġex acerb
Ġpl aster
Ġam ended
Ġadd iction
Ġsm ell
Ġtrans f
Ġline age
Ġauthor ised
ĠGl oria
Ġhold er
Ġprob ability
Ġaccess ed
Ġcommission ers
ĠJud y
Ġadvert ised
Ġaddress es
ĠGallip oli
o ise
Ġt ut
at hed
Ġh aw
ĠC ell
ĠK od
Ġcl ash
Ġwar mer
Ġinst ability
ĠQ F
Ġmount ing
ĠFin ance
Ġsn akes
Ġdecre ases
Ġspend s
Ġflash back
hous er
Ġgest ure
Ġvolunt ary
ĠUrug u
b ours
c hel
c asters
m ire
Ġl one
am en
ad en
ĠB res
ĠB iz
ĠH ence
Ġv ault
und ers
Ġint r
Ġad verse
Ġout ages
Ġprov es
Ġold s
sh ot
ĠX L
ĠAcc olades
Ġeth ics
Ġsplit ting
Ġbrand ed
Ġdeleg ate
ĠStr ateg
stan bul
Ġb ells
Ġto ile
ĠC oke
ĠB rain
th ia
ĠN G
Ġex empt
Ġch anc
Ġk its
Ġres ent
ond o
Ġdis reg
ĠRe ad
Ġtra uma
Ġmot ivation
Ġnecess ity
ĠOpen ing
Ġproport ions
ĠUk rain
Ġcontrad ict
Ġb achelor
ĠH air
ĠN est
Ġcom et
ip es
oun cing
Ġag ing
Ġshe ets
Ġcol oration
Ġsl ate
hor st
ĠBr ill
Ġamb ient
Ġpit ches
Ġtrain er
Ġ181 8
Ġprin ces
Ġble eding
Ġexplo itation
ĠMaced onia
l iest
nd ers
ĠT ara
Ġl overs
Ġst anza
ĠK ok
low n
ick er
Ġqu ote
Ġjust ify
ĠEd en
ĠÂ ·
Ġposs esses
ĠRec onstruction
Ġstruct ured
Ġplant ations
ĠClass ification
ĠDen is
Ġcert ificate
ĠJane iro
Ġanaly zed
Ġinnoc ence
ĠAven gers
ĠBie ber
ar ine
ĠS isters
ĠM ode
Ġnot ices
Ġsp ine
ĠTh reat
Ġne ur
Ġass aulted
ten stein
erv ille
omet er
Ġsw amp
Ġwood ed
Ġacqu aint
Ġnatural ist
Ġcollect ors
Ġconstit ute
ĠPers ia
ĠDrag ons
Ġcommemor ated
ĠAthen ian
ĠPatric ia
Ġbureauc r
L U
c ot
w old
Ġt apes
at ops
Ġc ables
Ġre nder
ĠA AA
Ġex ports
Ġpl ural
ĠV ie
Ġapp end
Ġdes erted
Ġsing led
Ġins ult
ĠSw im
ĠRock s
Ġap ology
Ġobserv es
Ġcompris e
ĠAri el
Ġquiet ly
Ġmarg ins
Ġpsychiat ric
Ġfrog s
ĠSold ier
Ġincons istent
ĠMcCle llan
Ġargu ably
i ard
Ġp ension
ĠW C
ĠO ry
Ġch asing
ĠRe e
ĠUS C
ĠMay er
Ġpar achute
Ġcapt ained
Ġ29 5
ĠBut ton
Ġarran ge
ĠKh mer
ĠJer icho
Ã¨ res
Ġguard ed
Ġspons orship
ĠSpe aking
ĠCook e
ĠEC W
Ġoutn umbered
f al
u i
ĠS ou
ĠC anton
ĠM ab
ĠE ri
ĠK ad
Ġint ric
Ġfl ame
omen cl
Ġsol ic
Ġmer ge
ĠSam antha
Ġbi as
ĠTra vis
ĠChron icles
ĠUnf ortunately
u y
x es
Ã ¯
re cht
Ġf ission
ĠCh rys
per t
Ġsc utt
att a
ĠSc r
Ġsupport ive
ĠPr ayer
Ġorgan ism
ĠTr ondheim
Ġdiscover ies
ĠPart isans
Ġfootball er
ĠCr imson
Ġtransition ed
Ġment ally
Ġswitch ing
Ġnurs ing
ĠKle in
Ġspont aneous
ĠGalile o
F S
or cing
Ġl umber
Ġg rie
ĠD olph
ĠL ep
Ġass umes
Ġsever ity
Ġdisc s
Ġpil grim
ĠMass a
worth y
ĠLib ya
ĠShep ard
ĠRBI s
ĠJut land
b els
Å Ł
ĠA FL
ĠD ion
ĠJ ol
Ġinc lined
ru ff
ĠThere after
ĠReg ina
ĠGr up
Ġinsp ir
Ġthreat en
ĠSl oven
Ġple aded
Ġpun ch
ĠLow ell
Ġagree ing
z t
Ġs aga
ĠA gg
ĠB ury
ĠI on
art ments
Ġsp ray
Ġabsor ption
ĠSyn opsis
Ġpneum onia
Ġinfra red
y ah
Ġt ense
Ġm otto
ĠA man
ent er
ĠH iggins
ĠR CA
ĠD ear
ĠN O
Ġsp rings
Ġcont ention
ĠEar p
Ġsubst ances
Ġmut iny
ĠHart ford
ĠProm otion
Ġpenet rate
Ġpel oton
Ġperf ection
ĠClif ford
ĠGand hi
Ġt ran
ad in
ĠM au
ĠU mb
ĠAt ari
Ġaut onomous
Ġprop he
ĠMil itia
Ġemb raced
che wan
Ġcommemor ative
Ġexplo ited
Ġcod en
Ġdrif ted
t rak
Ġp aced
Ġg rief
Ġas cent
Ġas ym
ĠCh ick
Ġher d
Ġplay wright
ĠFor rest
ĠBar r
ĠAm ph
omb ie
ĠCor por
Ġhard core
ĠDam on
ĠEle ph
ãģ ®
ĠCitiz ens
pend icular
ĠA B
ch urch
Ġex ter
Ġsk ating
isc opal
ĠStud y
Ġtax i
che z
ĠRel igious
ĠVik ings
ĠVenezuel a
Ġunav ailable
ar as
ĠS G
ĠL ands
os c
ud i
Ġsp elling
Ġfour teenth
Ġship ment
Ġevery where
Ġnomin ate
Ġadop ting
Ġamb iguous
ĠMic he
Ġ64 0
ĠPolit ics
ĠPhys ics
Ġconce aled
ĠDuch y
Ġsop rano
j ust
ĠS ina
ĠM ats
ĠH S
ĠJ ude
ill and
Ġsh ores
Ġcomp elled
Ġup wards
Ġsup rem
Ġtra iling
Ġno on
Ġins istence
af ts
Ġdra ught
Ġprocess ion
Ġrail s
ĠGame Cube
ĠMur der
road s
Ġge ometry
ĠBru ins
Ġancest ral
bre aking
Ġow l
Ġpassion ate
Ġpresc ribed
ĠParad ise
Ġdw elling
Ġs inc
or ate
Ġl odge
us an
ĠD ahl
ul ing
ĠN iss
Ġinc ub
ĠV C
Ġcre m
Ġany body
Ġcomb inations
Ġproject ion
ĠMid night
Ġexplos ions
ĠWater loo
Ġastron omy
ĠRick y
ĠSteven age
Ġwire less
Ġcad ets
Ġmotorcy cle
Ġspokesp erson
g ue
g au
Ġb ubble
Ġp ending
ĠW are
oc he
ĠV H
Ġco ordination
ĠCo ff
Ġcollabor ator
Ġprohib ition
Ġneighb ors
ĠHig her
ĠRÃ© union
b ut
Ġf ountain
ĠI stanbul
ĠR iv
ĠW izard
ign y
Ġsome how
Ġinst inct
Ġsystem atic
Ġdism ay
ĠLiber als
Ġcrowd ed
ĠJac qu
Ġastron omer
Ġglac ial
ĠRif les
Ġreson ance
l itz
z h
Ġm ason
im us
ir atory
ay ana
ĠD irty
ĠW ise
ĠG aul
Ġsp rin
Ġcan als
Ġfl aws
ĠBrit ann
Ġmon key
ĠMc B
ĠBar ney
ĠHer mann
Ġche aper
Ġexperiment ed
Å¡ iÄĩ
Ġfilmm aker
Ġpled ged
Ġende av
g em
on te
ar ious
Ġin ad
ĠB olt
ig i
ĠR ules
ĠO val
Ġar ter
man s
Ġass aults
Ġz ool
ĠCongress man
kin en
Ġsimpl icity
Ġcorpor ations
ĠTerm inal
ĠJed i
o let
ĠT rit
Ġhe red
ĠJ ard
Ġcl ashed
Ġprov ing
Ġadm iration
Ġrev ive
Ġhon oured
lo e
Ġprefer ring
ĠImp ro
Ġimpl ications
Ġphysic ist
ĠKend rick
ĠGiov anni
3 2
ĠC ott
ĠM FR
Ġex h
ĠAr chie
Ġass im
Ġsur plus
Ġmon astic
Ġcop ied
Ġtreat ies
Ġmem oir
ĠMat hemat
ĠAtlant is
Ġelectron ics
ĠHav illand
Ġdecomp ression
h olic
ĠH ost
ĠH urricanes
Ġst ro
ĠG erm
aj an
Ġscreen writer
Ġcoordin ate
Ġoutl aw
ĠMong ols
Ġreorgan ized
ĠSuz uki
Ġpedest rian
ĠVeter ans
Ġretal iation
Ġrepuls ed
ĠC A
ĠD oyle
Ġad orn
Ġrec k
Ġam mon
Ġdep leted
ĠSch mid
ĠGram mar
Ġcommit ments
Ġexception ally
ĠLin naeus
Ġjuven iles
ĠThan houser
Ġsymph ony
Ġplag ued
ĠNorthumb ria
it ches
Ġre lying
ot le
ĠG ale
um bo
Ġsp herical
az y
ĠHar riet
int o
Ġminor ities
Ġchief s
Ġunivers ally
Ġcontrast ed
Ġsynt hetic
ĠNich ols
Ġpseud onym
Ġhier archy
l av
Ġb iblical
Ġd ose
ĠM ob
ĠF iji
ĠN un
um ing
og enesis
ass es
Ġinter red
Ġfl otilla
Ġver bal
ĠBe g
Ġmar rying
ĠAm in
rodu ced
Ġhold ers
ĠMcC orm
urt les
Ġ182 7
Ġpenn ed
ĠElement ary
Ġflatt ened
ĠSaskat chewan
M P
ĠA uck
ĠA very
if iable
pp elin
ĠZ ion
Ġemb race
ĠOper ational
ĠHistor ically
ĠRow ling
ĠBudd ha
Ġprev ailing
Ġridic ulous
R B
Ġb ays
ran ces
ace ans
Ġev angel
ĠSh rews
ann ah
ĠBar oque
acher s
Ġexhib itions
Ġemphas ize
Ġ177 7
Ġur ine
ĠHay nes
ĠConfeder acy
ĠOd in
Ġoverse e
uts ch
Ġcheck ed
ĠSpart ans
Ġindirect ly
Ġsear ches
ĠT iber
st ick
ĠB achelor
Ġg aps
ĠI F
um en
ĠE tty
ak on
ĠK appa
ound ing
Ġte legraph
Ġdem os
sh am
ĠWe hr
Ġfle ets
Ġvol tage
ĠIntern al
ĠPaul o
Ġfavor ably
Ġexam ining
Ġ182 6
Ġunf air
ĠAsh ton
Ġcontest ant
ĠConfeder ation
Ġdetail ing
ĠAud io
Ġhat red
Ġcooper ative
Ġdrink s
Ġsubstit uted
ĠCoch rane
Ġcott age
Ġrif les
ĠVenet ian
ĠCarne gie
g ang
k ie
re ted
Ġin ert
ĠF avor
Ġv ag
if erous
ĠK ess
ick ed
Ġpres ided
Ġno ir
erm aid
off s
ĠJer ome
Ġinstit ute
Ġlic ence
Ġuns ure
ĠAnim ated
ĠSacrament o
ĠShrews bury
V N
Ġd op
ĠC ities
im on
ĠP ry
Ġcar riages
Ġopen ings
Ġpar odies
ĠWilliam son
ĠSch arn
pe z
Ġsoundtrack s
ĠChe v
ĠColl ier
Ġfil ters
Ġstrip es
ĠMP s
Ġprivile ges
Ġstair case
9 0
st ed
ĠF S
Ġv ass
Ġdis gr
ting u
ĠGer ry
ern e
ĠBl ame
Ġcharacter ization
ĠAng les
ĠGar land
ĠDun n
Ġ66 0
Ġexpress way
Ġwheel chair
ĠRecord ed
Ġcoordin ator
ĠMys ore
Ġw eren
Ġp awn
ĠS is
ĠG oss
ĠE ra
ap est
iz a
ib i
ek ing
Ġwar n
ĠZ ah
Ġbuild s
Ġequ ilibrium
ĠBrown lee
Ġtransfer ring
back er
Ġ49 0
Ġrac ist
ĠMerc ia
ĠNear ly
Ġoutl ined
ĠInv inc
cha ikovsky
Ġsanct uary
ĠHitch cock
ĠG amer
og ene
Ġoff ence
Ġchar ming
Ġair plane
ĠPar ade
Ġprop oses
ĠAir bus
Ġcoun cill
ĠInter est
Ġsubst rate
Ġenter prise
Ġillust rate
Ġconsum ing
Ġaddress ing
ĠPo ole
Ġpup il
Ġhang ar
ĠAz ores
ĠSab bath
Ġcoff in
Ġtheore m
ĠEth iop
Ġimped ance
ĠSchne ider
ĠS porting
ĠF us
Ġgener ators
Ġsuccess ors
ĠNorth western
Ġer ect
ĠEast E
Ġpain ful
Ġ181 7
Ġlog ical
ĠExp o
ĠBad en
Ġbes ides
Ġtrick s
Ġcry pt
ĠInsp ector
ĠOcc up
haus en
psil on
an ity
ĠR ole
em po
ĠG ert
ĠN A
ell us
per ors
ĠAl g
lud ing
Ġatt aining
Ġbl ade
Ġdep ended
uss y
ĠCal der
Ġpat rolling
oll s
ĠMil k
ĠBen z
Ġ42 0
ĠOd ys
ĠRaid ers
Ġremind ed
ĠInform er
ĠEastE nders
H P
g ain
Ġw ield
Ġb rid
ĠT imb
ĠS eward
et us
ĠN P
ĠSt anding
Ġreg ulated
ific ant
ĠWe iss
Ġcy cles
Ġill usion
Ġ180 3
Ġdyn amics
Ġrailroad s
ĠHans en
Ġrecruit ment
Ġabrupt ly
Ġsab ot
ĠByr ne
ĠDres den
z b
Ġa fore
Ġw eld
Ġo ught
ĠM A
ol io
ut ory
ĠD ust
ĠW ulf
ical s
Ġatt ach
ley s
Ġdisc retion
Ġsuff ers
Ġtransport ing
ĠIndust ries
ĠChron o
Ġsimultane ous
Ġshield s
gro ve
Ġsurpass ing
Ġwag ons
Ġelectrom agnetic
Ġg ri
ul se
ĠK i
Ġdis g
ĠLe vin
Ġair lines
Ġclass ics
Ġext ensions
Ġext raction
Ġbar red
Ġemb ark
ĠTrans ylvania
Ġ180 8
ĠBu cc
ĠHaw ks
ĠAnn iversary
Ġinteract ive
ĠUSS R
Ġrhythm ic
Ġeleph ants
Ġincred ibly
ĠCN N
Ġrelax ed
Ġswall ow
r one
or por
ro ys
il ocy
Ġhe d
ĠF ram
ĠE lection
Ġv ivid
Ġall oy
ĠAust rians
ĠBo om
Ġimm ense
Ġcontrast ing
ĠLiber ation
Ġeth n
ĠHo oper
Ġoutf its
ĠML S
ĠLaure nce
O N
z ko
Ġh ail
ĠC osm
ul in
ra e
Ġpro be
ĠV ig
Ġsc ra
ĠSp ector
Ġind ul
Ġtw ins
Ġgl ory
ĠStar C
ĠMil ne
Ġtransl ations
ĠPublic ations
Ġstraight forward
Ġcontest ants
Ġfashion ed
ĠPur ple
ĠDomin ion
Ġdolph ins
Ġmicroph one
Ġt am
Ġb ru
el ves
ct ica
Ġsp un
ĠMar riage
ĠCon way
Ġpract ically
ĠRob son
Ġenjoy ing
Ã¨ s
ĠRain fall
Ġdepos it
ĠStat istics
Ġoblig ations
ĠGarc ÃŃa
Ġlav ish
ĠScharn horst
t op
Ï ħ
Ġp igs
Ġun m
Ġout ward
ĠY as
ount y
ĠSp ok
Ġgener ous
Ġhand ic
Ġmid way
Ġreal igned
Ġsw orn
ĠPres idency
Ġcy cling
ĠBre nd
rog amer
ĠProv incial
Ġsort ies
Ġgall ons
Ġsynthes izer
ĠOfficial s
Ġfundra ising
ĠAuck land
h ail
Ġf res
ĠM ersey
ĠD ante
att on
Ġinv alid
Ġexpl orer
ĠEu rogamer
Ġreal izing
Ġrev is
Ġcoast s
head ed
Ġcru ising
Ġsyn agogue
Ġ181 1
AF TA
Ġrhy thms
Ġsatisf y
ĠStra its
Ġfeud al
ĠDiv ine
Ġhapp iness
ĠArc ade
ĠNavig ation
Ġto pping
ĠP iper
og ram
Ġsc an
Ġover flow
ĠSm oking
ĠQu ad
ĠHol t
ĠPat rol
Ġ182 3
Ã¨ ne
Ġelev ator
Ġdescend ant
Ġhang ed
Ġreserv ations
Ġironcl ads
ĠKrat os
w ulf
ĠS Ã£o
Ġe uro
ĠM aiden
Ġst unning
ĠSt o
Ġcl o
Ġout c
ult ural
Ġme als
Ġcap ped
Ġmill ennium
oss a
Ġmar ijuana
Ġengine ered
ĠJackson ville
Ġcat cher
Ġsyn onym
Ġadvoc ates
Ġearthqu akes
ĠHur on
Ġneighbour hood
Ġvig il
Ġantib odies
Ġtrump et
Ġcav ity
Ġnost alg
ĠPhilharm onic
z omys
ĠP T
Ġhe n
ĠR oot
Ġal phabet
rom b
um o
Ġad he
Ġdec eption
Ġdest roys
ĠWhite head
het ics
Ġcounter ed
Ġ43 0
Ġblow ing
Ġdivers ion
ĠCelt ics
Ġconven ient
ĠYok o
Ġwors ened
child ren
ĠOC LC
Ġw rist
Ġc af
ĠI L
ĠR Ã¤
ĠG ong
Ġrec yc
ĠSh ot
ĠInd ex
ĠWe ap
Ġsent iments
Ġsol ved
ĠRob ot
iser ies
ĠSuper ior
Ġ179 1
ĠGo ogle
Ġadj oining
Ġlands lides
Ġfranch ises
Ġlic ensing
Ġprev ents
ĠAntio ch
ĠReserv oir
c ard
ä ¸
ĠT ick
ĠB B
ĠH enson
ĠN it
Ġex tingu
ine as
Ġcomp are
are th
aj o
ĠGer ard
ĠAp ost
ĠMe h
Ġcrew men
ĠMid land
Ġche f
Ġfunction ing
Ġcra fted
ĠKer r
ĠChes hire
Ġmour ning
Ġinappropri ate
er ff
it imate
Ġh ob
Ġg ly
ĠW i
ĠL otus
ĠG aud
ag ar
ĠO ric
Ġab duct
Ġj aws
ĠAn to
Ġrem od
Ġcan opy
ĠEm il
Ġsimpl er
Ġwilling ness
Ġrevol ves
Ġmonaster ies
ĠMyst ery
Ġslee ve
ĠAdvis ory
ĠPione er
ĠResc ue
Ù Ħ
Ġf aint
Ġf raction
an ish
Ġh p
Ġh ilar
ĠC i
th ard
ab out
Ġdis emb
Ġmet aph
sh aven
ĠNor ris
ĠMac beth
ĠMD OT
ĠGall agher
ĠSher idan
Ġven om
ĠDark ness
ĠNich olson
ĠJacob s
ĠDod d
ĠHur ley
ĠDiam onds
Ġscen arios
ĠJen kins
ĠScandin avian
H D
in ia
Ġc ris
Ġm akers
ĠThe ory
ĠH et
ĠH ors
ĠW an
ĠN er
op ers
ĠY a
Ġno ct
ret to
ĠMin i
Ġgl ider
Ġpri zes
ĠEv angel
Ġspecific ations
ĠNic ol
ĠRecord ings
Ġorn ament
Ġoptim istic
ĠP iano
ĠG ian
Ġnot ified
ĠShe ll
ĠDe velop
Ġins ane
ink a
ĠNe al
Ġdeal er
Ġge ology
writ ing
ĠAut umn
ĠUr s
Ġinaug urated
Ġanat omy
Ġoverturn ed
Ġcompuls ory
h ound
Ġd ocks
ĠW on
ĠK rie
Ġoff set
Ġcons on
az ar
ĠZ en
Ġconf luence
Ġrecogn izes
Ġforest ed
Ġ178 3
Ġactress es
ĠBal zac
Ġinstall ations
Ġspons ors
Ġprovision al
ĠHaz el
ĠNS B
Ġreass igned
Ġannex ed
Ġimmun ity
ĠHyder abad
m acht
ĠT i
ĠS ard
am ination
ĠB ac
em outh
Ġsur g
Ġbest s
Ġdiv ert
Ġpain ters
Ġpred ation
Ġbreak fast
itor ium
ĠEv idence
Ġconvers ations
ĠCam den
ĠCred it
Ġforth coming
ĠToy ota
ĠSlav ic
Ġconclus ions
ĠByrd s
Ġstup id
z ier
is ible
ĠT ub
ĠC rescent
ĠB ash
if ully
ĠK ry
end ers
Ġmin t
row th
Ġport al
Ġdel icate
Ġ181 3
Ġpack s
Ġtact ic
Ġunl ock
Ġshut tle
Ġfratern ity
ĠSchwar z
E P
É Ľ
Ġ è
Ġs ake
ĠS aga
ĠS uther
ĠC od
Ġe go
ĠB und
ter ing
ĠH ak
ĠP ony
Ġch ick
Ġch aired
Ġpre quel
Ġsub gen
Ġco hes
ĠBl ade
Ġsk ysc
Ġdel ivers
ges chwader
Ġsoc ially
Ġ40 4
Ġhall uc
ĠFront ier
Ġalco holic
ĠLaur ie
cul osis
ĠSpok ane
ĠRÃ¤ ikk
Ä Ļ
or os
es a
ĠT rench
ĠC T
Ġg a
ĠN ay
ĠU b
Ġsp at
Ġj ournals
Ġdis ruption
ĠSe jm
Ġac et
ĠCl ap
Ġinf inite
Ġdist orted
Ġmark er
ĠPart isan
Ġrecogn ise
Ġthreat ens
ĠCast ell
ĠIm port
ĠKh al
ĠBul let
Ġsand y
Ġelabor ated
Ã¶n en
ĠVers ion
Ġresur rect
ĠWehr macht
Ġt ern
Ġp avilion
Ġre e
ĠS ki
ĠM ansion
ĠG wyn
ill ard
ĠCh u
ĠHe is
Ġed ible
Ġsmall pox
Ġsl ipped
ump ing
Ġoccup ies
ĠRoy als
Ġabsor b
Ġmillimet re
Ġpractition ers
Ġsuscept ible
D er
f in
z hn
ing le
Ġd ur
ĠH abit
ĠD under
ĠIn ver
Ġund ivided
ĠShe t
Ġconf ession
Ġbas eman
Ġpat rons
Ġfort ification
Ġri ft
Ġmist ress
Ġcard inal
Ġpul p
Ġpref ers
Ġsemif inals
Ġdismant led
ĠNicar agua
ĠRÃ¤ikk Ã¶nen
R D
Ġb ug
Ġm asts
ĠB onn
ur rection
ĠU lyss
Ġyear ly
rop od
ĠRe ports
Ġsever ed
Ġpol ished
Ġmil itar
Ġinflu enza
Ġer oded
Ġprocess ed
Ġborn e
ĠMill wall
Ġdemonst rates
Ġsurre al
AR D
Ġsoul s
ĠEle ven
Ġmand ate
Ġpale ont
ĠKes ha
Ġunders ide
ĠPrevious ly
ĠUlyss es
3 7
4 5
c u
ĠT yr
ĠM B
ĠR apt
ĠF ing
ĠL j
ect ors
Ġte leg
Ġev id
ĠRe ign
Ġfre ighter
urg ical
ĠMy th
Ġpot tery
ĠDo om
ĠEll iot
Ġalt itudes
Ġhighlight ing
ĠShel by
Ġcogn itive
ĠUkrain ian
3 5
e od
Ġw ax
Ġo sc
Ġf iber
Ġb rack
ĠS ister
el ed
ĠC ris
ĠG DP
ĠE ck
Ġsl ated
ĠAm or
ĠMon key
ĠAct ing
Ġtax ation
Ġge ography
Ġsens itivity
ĠBul ld
Ġsun light
Ġacknow ledge
Ġsimpl ified
ĠManu fact
ĠStef an
Ġguerr illa
Ġreinst ated
Der W
is ors
Ġp irates
ĠM iff
ĠD ictionary
em atsu
ul iar
ĠN ights
ĠE scape
ĠY ak
ll i
Ġinf ants
Ġhel m
Ġsl ogan
int age
Ġhost ility
Ġviol ations
ĠHaw kins
ns ic
Ġske ptical
hell o
Ġstyl istic
ĠHollow ay
Ġt ones
ĠT chaikovsky
Ġst airs
ĠN ice
Ġsc ler
ĠAl pine
Ġsup erm
ink er
ĠCal ed
Ġinflu x
Ġer otic
ĠÃ ĺ
ĠVan DerW
Ġnegoti ating
ĠCorn ish
Ġraid ers
ĠBark ley
Ġbackst age
opot am
2 7
Ġw agon
Ġb ored
ĠR ule
ĠE uc
Ġv apor
ĠIn to
ĠU ematsu
Ġent reprene
ĠCl ara
ĠQ ing
Ġrest ra
Ġ30 1
Ġdra fts
Ġste amed
Ġple ase
Ġlif esp
Ġcho oses
Ġappl ies
Ġimmig rant
ĠCru iser
ES CO
Ġmart in
Ġinaug uration
Ġnucle i
ĠWilhelm shaven
Ġfert ile
ĠMang alore
ĠRus so
Ġrepris e
Ġintend ing
ĠRif le
Ġc her
ĠC oc
ĠI ro
ĠR uf
ĠF ut
ĠN ile
Ġup right
ĠOr b
ĠHer od
Ġten ants
Ġgl ad
ĠCor al
Ġwid ening
ĠHam mers
Ġprincip ally
ĠGra v
Ġtorpedo ed
ĠDown town
Ġninet y
ĠZe ppelin
Ġpenet rated
ĠMarket ing
ĠCyp rus
Ġdisorgan ized
Ġtrunc ated
b ys
ĠL ys
ĠL ille
ĠK uala
Ġsh afts
Ġun ac
og o
Ġwhere in
ener y
Ġshow er
Ġbook ed
ĠRou ge
Ġemploy ers
Ġseg regation
Ġpack aging
Ġwithdraw ing
ĠRadio head
ĠPeng uins
Ġrepris ed
ĠCzechosl ovakia
ĠVanDerW erff
f orth
an ed
Ġp ent
ĠT ram
ĠThe m
ĠJ ub
ge ons
ment ioned
ĠV isc
Ġar id
ĠUn able
Ġthan k
ĠLe vi
Ġsub way
ool s
Ġmon keys
ne g
Ġsw ords
Ġmot ives
Ġprem ium
ĠRob bie
Ġinvestig ators
ĠCont est
Ġdemonst rating
Ġemp ower
ĠPle asant
ĠYellow stone
ĠLem on
Ġtouc hes
Ġreiss ue
ĠHerc ules
Ġwis dom
role um
Ġt att
Ġm un
ĠM ec
ĠB omber
ĠH are
ĠP asha
Ġcl ashes
Ġdis ability
ĠMar vin
Ġpe ac
Ġinv ites
ĠSc apa
Ġresp iratory
rad es
Ġext racted
Ġmot ors
ĠBel ow
Ġsil ly
ĠSpan iel
ĠFrank f
hold er
Ġdistrib ute
ĠArch ives
gu y
Ġselect ive
ĠNic olas
ĠWhe at
Ġreprodu ce
Ġendors ement
Ġprev ailed
Ġscar ce
Ġlung s
Ġdisgu ised
Ġsymmet ry
Ġsel dom
ĠTorch wood
ĠSuther land
c ely
Ġt ails
Ġf ug
un ks
Ġch ant
ĠAm anda
Ġcr ashes
ĠEx cell
Ġhuman itarian
Ġbr ide
ste en
Ġsymbol ism
Ġuns igned
Ġdens ely
ĠNob ody
Ġgentle man
Ġaristocr acy
ĠVolunte er
ĠBagh dad
Ġinad vert
h is
Ġp irate
ĠS overeign
ad ia
ĠB W
ĠL A
ĠG ue
pt ions
Ġdes erved
Ġfe ast
Ġcan vas
ris ons
ĠCar lo
Ġaff irmed
Ġste alth
Ġnational ism
ĠMo e
Ã¶ l
Ġenjoy s
ĠWall ach
ĠEp iscopal
Ġdial ects
Ġsalv age
g art
Ġ umb
Ġa ide
ĠA th
ĠB ug
Ġst al
ĠR he
ĠW ire
ch an
ĠN adal
Ġpl ac
ary a
ĠSh ut
Ġtrans cend
Ġbre w
Ġprot otypes
ĠNe o
Ġ180 2
ĠTim or
Ġ56 0
Ġproceed ing
Ġstret ches
Ġshut out
ĠAh med
ĠFal con
Ġneutral ity
ĠTit le
ĠGates head
ĠSyl vester
Ġabd omen
zhn ev
f u
p ace
en ium
Ġf used
ĠH os
ow l
ĠP ab
ĠL eth
ĠE ust
ag uchi
av o
ĠK ne
ass is
act ivity
rop s
Ġacc olades
ĠSc ale
vent ional
Ġconf using
ĠCor inth
aut hor
ĠVal ve
ĠRes ources
ĠFlor a
Ġrat ified
ĠUN ESCO
Ġselect ions
Ġsurviv or
ĠFu j
ĠCG I
ĠCoul thard
Ġfa Ã§
ĠMiche le
Ġ Ê
Ġa ce
Ġp inn
Ġm oll
le utnant
ĠD rug
Ġv om
Ġ00 7
Ġwar b
anc ies
Ġmod ule
ĠWill ow
Ġ25 4
ĠMin isters
Ġcommun ism
ĠAlbert o
ĠMov ies
Ġtrust ed
Ġsynthes izers
ĠMes a
Ġcalib re
m issions
n ick
ĠB low
ĠG B
ĠK ai
ru z
Ġdet ach
Ġhom eland
ĠUp anish
Ġconcept ual
Ġkick ing
ĠPur ana
ĠYanke e
Ġfut ur
Ġlandsc apes
Ġnumer ical
ĠMarse ille
Ġextr ater
o ors
ĠS ave
ĠP asc
ĠK ou
sh a
ĠRo ch
Ġeth ical
Ġ177 8
Ġundert aking
ĠDal mat
ĠWhe ther
Ġflank ed
ĠProgram me
Ġchron icle
ĠHav ana
Ġrever ted
ĠRams ay
ĠVamp ire
ĠVatic an
Ġt empt
Ġf i
al m
ĠT we
ĠS ava
ach lan
ĠSh ap
pen se
ĠBar th
Ġtake over
ĠAb s
ĠCap t
ĠMer it
Ġsyn chron
Ġcas ino
ĠSo ap
ĠBurn ham
Ġrob bery
ĠTerrit orial
Ġneighb ours
Ġmonit ored
ĠIsab el
Ġrepublic an
ĠMater ial
Ġba iley
Ġinexper ienced
M alley
Ġs ar
Ġl ia
ĠM og
Ġtr ams
Ġacc using
Ġrel ies
ĠZ ap
Ġinf ring
Ġdecl ares
Ġdon ation
Ġpit chers
Ġyellow ish
ubb ing
Ġshore line
Ġtoll s
Ġhem isphere
ĠPatri ots
ĠJak arta
Ġincarn ation
m ind
Ġn em
Ġn iece
ĠL uck
Ġr ans
Ġcomp artments
Ġtimes lot
Ġfac ade
Ġmer ging
ĠWood y
Ġ180 7
light en
ĠRos berg
ĠKat rina
Ġintercept ions
idel ity
Ġinvent ory
ĠSteel ers
ĠAntar ctica
Ġtoxic ity
ĠNir vana
g uez
Ġa ston
or ian
ĠM ate
ĠThe ss
ĠH Ã¤
ĠF ruit
ĠL ara
ĠâĢ ³
Ġinc oming
og ist
yl us
ĠKh alid
Ġresear cher
Ġcad et
ĠCert ifications
ĠBung ie
ĠStarC raft
ĠAnto ine
Ġosc ill
i ola
Ġp and
il o
ĠB io
ĠH ick
ĠK eller
Ġsh ame
ĠU BS
Ġdis ple
ren s
Ġup ward
Ġcan yon
Ġ21 3
Ġprop ose
Ġcr ush
Ġple asant
Ġsupp ression
ĠChe roke
Ġlob b
ĠKit chen
k iss
in ement
ar se
ĠB order
ĠB AFTA
ĠP awn
ĠF arn
ĠG os
Ġpl ague
ĠSp ock
Ġbl unt
Ġconc essions
Ġob it
ĠHar m
Ġequ ator
Ġdel uxe
Ġsol ving
itt i
ĠCons id
Ġ182 2
ĠDal ton
Ġsummar ized
Ġreiss ued
ĠFav re
Ġth y
ĠC annon
ĠM ey
ĠB oss
Ġbe e
ul ators
ag ree
ck er
Ġind ict
ĠCl air
Ġresp ects
Ġstr at
Ġcur se
ĠAb original
Ġprim ates
ĠÃ ł
ĠRod rÃŃ
Ġiniti atives
Ġchore ographed
Ġannex ation
ĠSpit fire
ĠBever ly
Ġpec uliar
Ġt ast
ĠI ps
Ġst ipe
Ġwith stand
ĠF rem
Ġcl over
Ġrel iance
Ġrel ocation
ĠNo ah
Ġinsp iring
ĠVir gil
rac ing
ĠFort une
ĠBoy le
ĠMel issa
ĠArm ament
Ġjournal ism
ĠHistor ians
Ġburn s
Ġfavour ites
Ġmis under
ĠWinn ers
Ġalumin ium
ĠPlate au
Ġeleg ant
occup ied
ĠHiros h
ĠRodrÃŃ guez
h ole
Ġl amp
Ġcl ich
Ġcan e
Ġdest ined
ĠEast wood
Ġhold ings
ĠPaul a
Ġfig ur
Ġcompar atively
ĠLis bon
Ġsuperv ising
ĠMans on
ĠBak shi
Ġelig ibility
ĠMÃ¼ ller
Ġlingu istic
Ġquadrup le
ĠTuls a
Ġ ×
le ep
ĠB ridges
ĠF ro
um per
Ġinter val
vi ate
Ġrem ar
ank ing
ram er
ys ical
Ġdra ined
Ġlim b
ĠPe el
Ġphys icians
ĠBur t
iter ated
ĠInf lu
Ġheart s
Ġbrown ish
ĠTir p
Ġconfer ences
ĠExpedition ary
Ġaster oid
cip ation
ĠNiger ia
Ġchanc el
ĠBucc ane
s ka
Ġf oster
Ġd amp
ol ini
Ġst rang
ant a
ĠK ro
Ġqu otes
Ġent ities
Ġwar ns
ĠEx hibition
Ġgrad ed
ĠMal aya
ĠBur ma
ĠSever n
ĠDar ius
ĠAbb ott
Ġbypass ed
Ġbrick s
Ġfulf illed
Ġspar se
ĠRodrig ues
Ġauthentic ity
ĠThanks giving
Ġlandown ers
Ġnutri ents
ĠRhy thm
Ġconspic uous
ĠTirp itz
ĠS ora
ĠR w
Ġrec ounted
ĠUn known
Ġpe at
Ġrock ets
ĠHam lin
Ġacqu itted
ĠTer ra
ĠDis p
rov ision
ĠLuther an
orpor ated
4 8
g t
l ation
u en
Ġw olves
ĠC ody
Ġg em
Ġwh is
Ġse ism
ĠCh ance
Ġcomp ly
ĠMar itime
ĠAugust a
ĠHar lem
ĠWill am
Ġprot ector
Ġfore most
Ġgl oss
Ġcut sc
Ġtext ile
ĠEll ie
Ġacad emics
ĠLincoln shire
Ġemig rated
ĠBalk ans
b r
y x
Ð ²
he us
ic ol
ur ia
Ġbe ak
Ġbe ams
Ġen am
Ġ22 2
Ġgen etically
ĠKe en
ĠKe ats
Ġquar ry
Ġdiss ol
Ġast rol
Ġty rann
Ġsynthes ized
Ġholid ays
ĠLegend s
Ġamend ments
ĠTimb aland
Ġd ental
ĠD ong
ĠL und
ĠN guy
ĠE h
ĠV T
Ġdis agree
Ġact in
ĠCom bs
Ġinv ading
Ġport able
osp ace
ĠNot es
ĠHor ace
Ġenl ist
Ġcoinc ide
Ġerr one
Ġbath room
Ġsacrif ices
mo il
ĠSaw yer
ĠRaf ael
I D
he asterly
Ġc elestial
ĠM Äģ
our ing
Ġad vers
Ġbu oy
Ġtrans verse
Ġbus iest
lin ary
Ġdram at
ĠUl ster
ĠKir by
Ġcommit ting
Ġcustom ary
ĠSoph ie
Ġbutt ons
z ky
Ġt we
Ġp uff
ĠM ask
ĠF aw
ĠG T
ĠG Ã©
ab l
Ġor th
ĠSt ad
Ġob ey
ĠPh yll
Ġlocal ized
Ġrad ial
Ġfire arms
stit utes
ĠBrown e
Ġaccording ly
Ġgra zing
ĠMass acre
Ġstere otyp
ĠSle ep
Ġfemin ine
Ġepid emic
Ġnightcl ub
p rint
ĠC ain
ac ies
ĠSt ur
Ġar row
Ġser ge
Ġra ge
Ġdef ic
uc us
Ã© d
Ġpar atro
Ġread ings
ither s
Ġarch ives
ĠStar gate
ĠTra ffic
ĠOl af
Ġpun ished
ĠHa as
Ġapart ments
ĠHob bs
Ġworksh op
Ġwhit ish
ĠVirt ual
ĠNom ura
C AR
b rough
Ġfor wards
ĠF ighters
op ods
Ġinc omp
ode on
az i
ĠChrist ie
ĠBar low
sc reen
Ġconflict ing
Ġoffer ings
ĠTy rann
Ġassass inated
Ġtight ly
ĠSig ism
ĠDram atic
Ġuncon stitution
ĠMI T
Ġrecept ions
Ġilleg itimate
Ġm ound
Ġm osa
ĠH im
ĠW ies
Ġal pine
od er
Ġsp ines
rib ing
ĠLe one
umb ers
Ġunf avor
Ġimag ined
Ġarc s
ĠSpe er
ĠBlood y
Ġtort ured
Ġpredict able
ĠLock heed
Ġdisgu ise
ĠSchw artz
ĠPhilos ophy
l aw
ad uct
Ġg land
ĠH ulk
Ġhe al
ft en
ĠRe ef
air y
Ġcap it
Ġimp ose
ets u
ĠFl int
Ġ28 7
ĠSat an
ĠRol and
Ġselect ing
ĠId a
Ġrenew al
Ġeval uated
Ġclar ified
ĠIceland ic
Î¿ ÏĤ
ĠFly ers
ĠMiff lin
z man
nd ez
Ġp ear
Ġm old
ĠS L
Ġl ens
ĠM ugh
ĠL ights
Ġpl aint
Ġdown s
Ġocc ult
Ġfinal ist
ĠHer r
ĠSim s
ĠMon itor
ĠBill ie
Ġobject ion
ĠPri ory
Ġdistrib utor
ĠCommand o
ĠRaj a
Ġobst ruct
Ġencl osure
ĠChile an
ĠParagu ay
bern atorial
ĠDang erous
Ä ĵ
Ñ Ĥ
ĠS anche
ĠH ut
ĠP ius
ĠL ot
ĠK af
ĠV and
ĠAl ison
ĠAn zac
ft on
Ġchar ters
Ġform idable
ĠSc rant
ung a
ĠBel ize
Ġrepe ating
Ġincorpor ation
ĠSant os
ĠEle ments
Ġretail ers
Ġcondem n
ĠRan ch
ĠLux emb
i ative
Ġin mates
ĠS uez
ĠB yp
ec he
ĠD yer
ĠW iggins
ĠL ucky
ĠO de
Ġv ener
Ġr ides
Ġr uth
ĠV es
ĠApp alach
ĠHel ms
ĠNickel odeon
ĠSanche z
b et
h oun
t ter
Ġc eded
ĠP M
Ġunder gone
Ġmy c
ĠMor ales
ĠGreen wich
ĠIr v
ĠBre zhnev
Ġtim eline
Ġgall eries
ĠInv asion
Ġtuber culosis
r aces
ro up
Ġh ated
ĠI ke
ĠD M
ĠD ul
Ġinter sp
ix ed
Ġdef ines
Ġmil estone
Ġbreak up
Ġhard est
Ġcell ular
ĠBav aria
Ġenroll ment
ĠTren ton
h og
w ic
or io
Ġe ternal
ĠM asc
ĠW ere
ĠF rey
Ġv ine
ĠK are
Ġpart ition
Ġtra it
ĠFl at
ĠAm ar
Ġpromot ions
Ġquarter f
Ġpair ing
Ġprogress ively
Ġmig rated
ĠTa o
Ġapprec iate
ĠNAS CAR
Ġprivile ge
ĠJag d
ĠInstr ument
Ġf aults
al am
ĠP SP
ĠK ling
Ġun identified
ug a
Ġ00 00
Ġdisc rimin
Ġfun n
Ġcirc us
isl av
Ġmechan ic
ĠTem per
Ġ178 8
ĠConn or
ĠInvest ig
Ġscrut iny
ĠDestroy er
ĠOffic ers
ĠScrant on
O P
r Ã¶
Ġin active
Ġfor c
iv ores
all a
ĠCom par
Ġtra ps
ĠWh atever
ĠTom orrow
ĠInter continental
Ġexperiment ation
ĠBud apest
ĠHM AS
Ġincorrect ly
Ġhered itary
ĠBrend an
c ad
Ġc aud
is i
ĠS ime
ĠS ieg
ĠB ourn
em ing
ĠL ump
ud er
ĠSt irling
og ens
Ġdis like
Ġimp air
ĠCar bon
ĠYork er
cl usive
ĠGu ang
aken ing
Ġregular s
ĠAtl as
ĠSmith son
Ġemphas ised
Ġ177 0
Ġvent ures
Ġdisturb ing
Ġpopul ace
ĠS low
ĠS ands
ch am
ĠL ah
ain es
Ġhist ories
Ġcur ving
Ġinit iate
ĠEl i
ĠPer kins
Ġap oc
Ġden ial
ĠIr win
ĠNin ja
ĠGun s
Ġterror ism
Ġmorph ological
ĠCurrent ly
j ina
Ġb ent
Ġh ors
ĠC indy
ac ula
ec d
ĠH oy
ĠL ives
ĠG es
Ġv oid
Ġmon opoly
Ġ16 00
ĠBl o
ĠX IV
Ġequ ations
ĠKe ating
ĠSam us
Ġforeign ers
Ġrespond s
Ġsn out
Ġbetray ed
Ġfeder ation
Ġconsec rated
Ġours elves
tef acts
ĠBriar cliff
d aughter
Ġw ards
Ġp ants
ĠC ary
Ġon stage
ĠG iles
Ġnorth wards
Ġconf essed
Ġide ological
Ġcost ing
ĠHam asaki
Ġgrad ient
Ġtax a
Ġbr ush
Ġabandon ing
Ġcaptain cy
Ġple a
Ġ53 0
ĠJud ith
ĠOpp osition
Ġlac rosse
Ġcontamin ated
ĠHirosh ima
2 6
a illes
Ġf riction
Ġn ud
ĠH aj
Ġst ocks
ĠL Ã³
ĠO mar
art y
ĠK och
Ġatt ested
ĠJo a
ĠAll ah
raph ic
Ġjust ices
ĠBre ed
Ġbra ke
Ġrecip ients
Ġpredict ions
ĠKos ovo
ĠFant astic
Ġinsurg ents
ĠGetty sburg
Ġpamph let
ĠGuin ness
omencl ature
re hend
an ing
al u
ic ism
ĠI v
her ty
ĠE aton
ill ary
Ġout sp
ĠSe lect
Ġam assed
ĠDe vi
Ġconf irming
ĠEl m
ĠMon aco
inn y
ĠGreen wood
Ġamb ushed
Ġdig ging
gr ims
ĠBarb ados
eg ro
ĠAC LU
brid es
Ġpor ch
opard y
Ġmistaken ly
Ġworksh ops
Ġsax ophone
Ġirrig ation
h ra
en aries
Ġb unch
ĠM ard
ĠI ber
ĠP iet
Ġst raw
ĠW ik
Ġal erted
ily n
ram a
Ġsign atures
ĠBl itz
Ġdist racted
Ġbroad caster
ĠAg nes
of sky
ĠTer race
ĠEgypt ians
Ġlog s
Ġwild erness
ĠExp osition
Ġcalc ulations
ĠCas ual
Ġdiplom at
Ġearn est
Ġtaxon omic
ĠMonten egro
ĠUtt ar
Ġextrav ag
h ab
v ic
Ġp itted
as ers
ĠH yp
ĠD ies
ĠHe brides
ult imate
ĠBo is
com es
Ġconv ective
Ġactiv ism
Ġtur moil
ĠSat ell
ĠDi oc
Ġbul b
Ġdefence man
ĠEvery body
Ġpione ered
Ġforecast s
Ġjudg ement
ĠWillam ette
ĠR T
ĠD ipl
ĠW itness
ĠO ilers
ate ful
Ġres ided
ĠAn j
Ġfe ather
ĠEn emy
ĠFor um
Ġstory board
Ġcor v
Ġorigin ating
Ġdevelopment al
ĠMad h
Ġlik elihood
ĠMer cer
ĠTw ins
Ġlif ting
ĠRom ance
Ġdang ers
Ġrebell ious
Ġupd ates
Ġprocl amation
Ġadvoc acy
ĠRoll ins
ĠAgricult ural
ĠGav in
Ġreconcil iation
ĠUran us
Ġutter ly
ĠKrak Ã³w
Ġinfect ious
U S
g ement
en i
ĠS ellers
um mer
ĠJ as
op per
Ġch ip
Ġch ocolate
ĠK ras
ĠU sta
ould er
Ġrest ruct
me ga
Ġpred iction
Ġneg lig
inf eld
ĠPat erson
Ġamb ulance
Ġswe eping
Ġsatisf action
ĠKer ala
Ġsatell ites
ĠSi oux
ĠThr iller
ĠArchae ological
ĠKens ington
ĠCitiz en
Ġdign ity
ĠSpl it
Ġmusc ular
Ġevid enced
n esty
ĠH imal
ĠH omic
Ġhe ars
ĠF unk
ew s
Ġle thal
ĠWh ilst
ĠInd o
Ġph ones
Ġdisc ouraged
ĠJu vent
ĠAnd roid
Ġfield ing
ĠMil o
Ġopt ional
Ġmagn ificent
Ġappl auded
ĠRod ney
Ġdyn am
Ġharm on
Ġharm ful
Ġcart ridge
ĠEc ology
Ġfare well
ĠCann es
Ġinverte brates
c ke
r iver
Ġp odium
ĠC ash
Ġas hes
Ġcont ests
ue ger
Ġres up
Ġsec rets
Ġra ises
ĠWill s
ĠEu rovision
ĠAb rams
Ġrepresent ations
Ġren umbered
ĠPlay boy
Ġboy cott
Ġ37 5
ĠGre co
Ġtur bo
Ġreject s
Ġgraph ical
Ġaccident al
Ġexcl usion
rif ying
Ġweapon ry
ĠLeonard o
Ġdict ator
Ġsustain able
ĠNab lus
ĠIps wich
at ine
Ġb ags
Ġto x
am iliar
Ġn od
ĠP ere
ĠP ull
ĠW ave
ill an
Ġsp elled
iz on
iz oph
Ġcour thouse
ĠMon mouth
ĠAct ivision
ĠMid lands
Ġey ewall
ĠKn ock
Ġsens ation
ĠWalk ing
ioc ene
Ġcha otic
Ġdepr ived
Ġscutt led
ĠCheroke e
f man
n is
n itz
Ġ >
Ġb od
Ġl amb
Ġas leep
ĠG P
Ġsc outs
Ġman power
Ġim aging
ĠAs c
ĠSc hed
Ġcrit ique
ograph ics
ĠPort o
tt es
ĠEv ents
ĠSever e
ĠCare ll
ĠBec ky
ĠRoy ce
ĠSax ons
Ġpartn ered
ĠTel esc
ĠMik hail
Ġbacter ial
Ġfron ts
Ġencourag ement
ĠGlou cestershire
ĠSter ling
Ġphylogen etic
Ġalgor ithm
ĠHomic ide
Ġa kin
Ġm ice
el ton
Ġe agles
Ġg rip
ĠH ogg
ĠD ancing
ĠF ountain
est ead
ist ance
oc ide
Ġsp lend
ĠAr s
rop ic
ĠJo hor
Ġsur m
Ġbl ades
ek er
Ġest e
Ġsum mers
Ġpract icing
Ġang el
ĠSar at
Ġchief ly
Ġla ure
ĠFair banks
Ġfashion able
Ġdiff usion
ĠRoll s
Ġlifesp an
f ighters
g ard
ĠP ure
ĠW ain
ĠW yn
ag han
Ġinc urred
Ġsc enery
ke eping
ang s
Ġfinal ists
Ġden oting
Ġmurder er
enc ia
aret te
Ġmedic ation
ĠSet tle
Ġvig orous
Ġbackst ory
Ġlith ium
ĠStrateg ic
Ġafore mentioned
g ame
i ards
ap o
ign ant
Ġrece ip
Ġgu ess
Ġless on
ĠEx cept
ĠBo er
ĠComp ared
ĠMon aster
ĠPort ra
angu ard
Ġscore less
Ġbi ographical
Ġconsider ations
ĠConn ie
Ġarchae ology
ĠExt ension
Ġflash backs
Ġdrown ing
Ġinterven ed
Ġnas al
ĠBÃ© la
Ġfutur istic
izoph ren
am ore
Ġr ust
pp o
Ġ20 8
Ġsc ram
ĠSh i
Ġdown ward
Ġgu bernatorial
ink el
Ġprop osing
ae an
ĠGr ass
Ġconn ector
Ġdisp ro
Ġcontract or
Ġarrest s
ĠTro uble
Ġ47 0
ĠCarl ton
Ġphil anthrop
Ġelev ations
Ġsand wich
ĠProg ressive
ĠArk ham
ĠVel vet
ĠOri ent
ĠDrum mond
ĠHert ford
ĠLark in
ĠLÃ³ pez
r ard
Ġm asks
ĠS ens
ĠH ens
em i
if olia
Ġhead line
Ġhead lining
Ġcur s
cer pt
Ġparticip ant
ĠMid west
Ġcat ap
Ġwing ed
ĠBor g
Ġbra ve
Ġresear ched
ĠBeck et
ĠLiving stone
Ġber th
Ġcinemat ographer
Ġvacc ine
Ġinund ated
ĠFlem ish
d ings
n h
ĠT C
ĠC ove
ĠB har
ĠH ubble
Ġst icks
ĠG arn
ĠJ al
Ġr hin
ĠK C
ia z
iz za
ene g
ĠAss y
Ġdiv iding
ĠMcC ool
Ġpen ultimate
ari at
Ġran ch
ĠOb l
Ġinstall ments
anth an
ĠLaure nt
Ġcosm ic
Ġsou p
ĠNatal ie
ĠGue vara
b its
Ġc yn
Ġb atch
ĠC ag
Ġst ain
ĠD ir
ĠF aul
ĠE ch
ist o
ĠSt ras
ian c
Ġun inter
ond uct
ĠTh ai
ile e
Ġen ables
ark y
ob ia
ĠDe L
ĠEd itor
ĠDo ct
Ġrespond ing
ĠAtt empt
ĠConstitution al
Ġsam pled
Ġmart yr
Ġexplan ations
ĠTit us
Ġpump ing
Ġhes it
Ġdissatisf ied
Ġprehist oric
H z
l as
am on
ĠM aid
ĠW et
ĠV ide
gan s
ĠAr lington
ĠLe a
ĠCl ause
ĠNe olithic
Ġimpro per
umb ling
Ġpur ported
Ġlo ops
ĠDom estic
Ġclin ic
ĠCrus aders
Ġfluor ide
Ġcit adel
Ġluc rative
ĠIro qu
O s
Ġc rying
Ġg ir
ĠG ros
Ġv ague
ew ski
oc us
ĠSt ing
Ġle ts
Ġsp inal
Ġar rows
Ġtra um
uc le
ĠOr r
Ġgun ners
ĠAng lia
ĠMon sters
Ġdebut ing
ĠSant ana
Ġguard ing
ĠFair fax
ĠDal ey
ĠStra uss
Ġstere otypes
ĠGameS py
ĠAur ora
u ve
ĠR amb
ĠD rop
ĠD raw
ĠN R
ĠCh ain
ĠV ita
Ġper pendicular
Ġthem atic
Ġimp erson
ĠIs is
Ġfree zing
ĠSal on
ĠArch ibald
Ġcontrast s
Ġmel anch
ĠDun stan
ĠJon as
Ġkick s
Ġ59 0
ĠLab rad
ĠExt reme
ĠCob ain
ĠSem in
Ġexpert ise
ĠEmer ald
izz ard
ĠInsp ired
chw itz
ĠCreat ive
ĠJard ine
Ġunconstitution al
Ġp ile
ĠS W
ĠR ogue
ĠF anny
ĠN ur
ment ation
ĠCh loe
Ġover shadowed
ĠY ounger
inal d
ĠAs p
Ġreg ulate
ĠSh im
Ġimp lying
ĠQ ur
Ġref uel
ĠChrist gau
ĠCo aches
Ġbegin nings
ĠAct ors
Ġdom ains
Ġ77 7
Ġbrand s
Ġarchae ologists
Ġcinemat ography
ĠGÃ¶ ring
ĠPÃ© rez
ĠFavor ite
A s
Ġthe ological
Ġp umps
Ġl un
ĠP ens
ĠP oints
os em
um m
ĠJ aguar
se in
Ġun used
Ġint ake
ĠLe ading
Ġtra ilers
ĠSc her
Ġaut ism
Ġsl ab
ham mer
Ġrev isions
ĠMart ÃŃn
ĠThat cher
Ġche cks
ĠPenn y
ĠLand is
Ġroll s
Ġjourney s
Ġregiment al
fr ame
ĠPun j
Ġanalog ous
Ġbarb ettes
Ġgren ades
Ġappar atus
Ġinadvert ently
Ġw ires
is o
ĠS utton
Ġth w
Ġl ucky
Ġst amps
ĠR AN
od ic
ĠK ul
so hn
Ġrec onc
Ġkn ocking
ĠCl ive
Ġbel oved
Ġcount ing
ĠHer b
ĠEl aine
Ġ40 1
Ġgen ome
ĠRock well
ĠTour ism
Ġreason ably
Ġunf amiliar
Ġ95 0
Ġbeaut ifully
Ġoverl apping
ĠRoy ale
ĠHo over
Ġrecip es
Ã¦ d
ĠTow ers
Ġriff s
Ġque ens
Ġrept iles
ĠStephan ie
Ġlobb ied
Ġreconc ile
c ia
Ġre used
ĠS D
ĠM ap
ĠB anner
ĠH C
ĠP OW
ĠR ij
ĠG ol
ĠN es
ĠCh ili
Ġ20 9
ĠSh u
Ġref res
ĠComm anding
sh op
ops y
Ġpriv acy
ĠGold berg
ĠField ing
Ġign ore
Ġpool s
Ġpredomin ant
Ġhook s
Ġhydraul ic
O H
Ġt ech
at ore
ĠS hips
ĠC ancell
ĠM ist
ĠW anna
ĠF est
ĠJ od
Ġr aced
ĠIn ters
ak o
ial e
vi er
Ġbook let
Ġport ed
Ġnow here
ĠSar aj
opter a
ĠTol edo
Ġnurs ery
Ġlib retto
Ġanarch ist
ĠAval anche
Ġcaut ious
ĠFerm i
ĠSigism und
b ore
ĠThe ft
ĠW igg
og ues
Ġinto xic
ĠZ immer
Ġrepl en
Ġhand held
com m
uk es
Ġcapital ism
Ġroyal ty
Ġload s
Ġsupply ing
ĠÎ ²
ĠEp ic
Ġharm onies
Ġpione ering
ĠOri ental
Ġsupern ova
Ġdelight ed
Ġprosecut or
Ġamalg am
ĠSarat oga
d ock
Î ·
Ġ ï
Ġf oli
Ġp iers
ĠS ob
ec o
ĠI bra
ĠP ig
ĠG add
Ġat roc
Ġpart isan
ĠNew sp
Ġrel ics
Ġpe asant
Ġinv isible
Ġwell s
Ġinf amous
Ġbel ts
af ord
Ġhum id
ĠEl ias
Ġaff irm
ĠGl am
ĠReg inald
Ġtravel ers
Ġprec ious
Ġchor ale
Ġhoriz on
ĠEnt ry
Ġphilosopher s
ĠOw ens
m oor
on et
it as
Ġb its
ĠM ons
Ġg rit
ot hed
ĠR agn
ĠN ate
ĠAl ma
ren ched
ĠMar athon
Ġpres erving
ĠNov ak
Ġtit ular
ĠMan ch
isc overed
ĠHigh ways
oll ah
ĠConf uc
Ġ178 1
ĠMcG overn
Ġcommemor ating
ĠHu bert
Ġfacil itated
ĠPriest ley
Ġevol ve
Ġsanction ed
f est
Ġt urtles
ĠS we
ĠA J
ĠC un
ĠL ox
ag us
od us
op ed
ĠK ag
Ġro oted
ug ging
Ġam usement
Ġbro od
Ġdet r
cl osed
Ġ23 9
Ġstat utory
sp ace
Ġobs essed
ĠLiber t
ĠSand ra
Ġimag in
ĠBudd y
ĠArmen ians
Ġgard e
gro up
ĠHob art
Ġfisher ies
ĠKÃ¶n ig
ou st
ĠT ARD
ĠS iv
ĠM aw
Ġg ag
Ġar rog
pl ess
ib a
Ġrel ent
Ġexp ose
lish ment
Ġlit ter
Ġtro ph
ald i
ĠCro ats
Ġcert ifications
ĠMcG ill
Ġlegit imacy
ĠFa ust
Ġconfer red
Ġalumin um
ĠTARD IS
2 9
b h
Ġa ro
en o
Ġf ooth
Ġd Ã©
Ġl ips
ĠR oses
ĠL al
um ont
ĠO v
te x
Ġreg gae
ĠShe pp
Ġdep uties
ĠEd ith
ĠFl air
aff en
ĠTr ump
ĠSam oa
Ġassist ants
ĠIm per
Ġperm its
Ġunsu itable
Ġencoura ges
Ġstream ing
Ġexpect ation
Ġrestrict ion
Ġwet lands
ĠSmall ville
Ġweigh s
ĠVers ailles
ĠWend y
ĠOdys sey
on el
Ġf ianc
Ġb ron
ĠT ide
ĠT ipp
ĠB om
ur ring
ĠH ots
ĠD ifferent
ĠJ ov
od erm
ĠO ften
ĠCh at
Ġrec ons
Ġcomm uter
rib es
Ġimp aired
Ġdecl ines
iers hip
ĠRoyal ist
ĠSen eca
Ġunc redited
Ġ178 7
Ġmyth ological
ĠKat y
ĠPle ist
Ġconce al
ĠMi G
Ġgenu inely
abet es
Ġvit amin
Ġost ens
Ġecosystem s
Ġpray ers
Ġpilgrim age
k amp
Ġ ze
Ġs acks
Ġp H
Ġm ourn
Ġd ip
le ading
ĠT res
ĠI A
Ġun ex
Ġar tefacts
Ġint ro
Ġup ro
Ġlong itud
Ġmid field
oon er
Ġant is
Ġfather s
ĠDon key
Ġsocial ism
Ġunc ont
ĠDes mond
mark et
ĠGun n
Ġanaly sts
Ġvulner ability
Ġdisagre ements
ĠRip ley
Ġdegener ated
ĠShet land
Ġc ake
Ġto ug
Ġh ards
ĠD ash
ĠV RS
Ġint est
Ġnew com
Ġmed itation
Ġfore head
int osh
ĠBrown ing
isl aus
Ġanal ogy
Ã¼ n
ĠAnt iqu
ĠDou b
Ġdom es
Ġwor ry
Ġtable ts
ĠTurn ing
Ġsongwrit ers
ĠKer rigan
ioc re
ĠPad res
ĠSpeed way
ĠCha os
Ġsucc umb
b uster
c us
Ġf ir
ĠT ec
ut ant
ĠD oming
Ġcon dom
ĠN ico
Ġv iv
Ġse af
Ġun imp
ry l
Ġcol legiate
ĠYork e
ĠYork town
Ġperiod ically
Ġav ant
Ġanim ations
ask i
rab ly
Ġstrength s
Ġsort ie
ĠWolf gang
Ġrout inely
Ġrecip roc
ĠEff ect
Ġanx ious
Ġecl ips
ĠLich tenstein
ĠLomb ard
ĠDund ee
Ġparan ormal
Ġhilar ious
Ġsurg ical
lighten ment
Ġintersp ersed
ĠBourn emouth
Î ¼
Ġf aded
Ġin k
Ġh ides
ĠC andy
ĠW hip
ĠL up
op ic
ill usion
Ġor thodox
Ġsh it
Ġfl ora
ĠCl ash
ĠZ X
ĠDe er
Ġoper ative
ĠPl us
tain ing
ĠRec ogn
ĠGener ally
Ġcapt ures
ĠEm m
asc ular
yr inth
ĠRam sey
ĠFar rell
Ġmolec ule
ĠFal un
ĠMes opotam
Ġgate house
Ġgam ma
Ġparad ox
ĠUsta Å¡e
v ich
Ã ²
in wall
Ġl onely
Ġn ec
ĠThe oph
id us
Ġg el
em ate
Ġwh oles
ĠG S
Ġj ets
Ġte aser
ĠMar ilyn
ĠSc enic
ĠMed ina
be g
ĠVal uable
ĠUnder wood
ĠMa ver
ĠNar uto
Ġweekend s
Ġuncon ventional
[...]
